{"as": 2278598, "to": 5856683, "impressive": 7281, "engineers": 9862, "hundreds": 18665, "atomic": 11388, "thousands": 31116, "over": 481338, "manhattan": 6850, "success": 29988, "##rated": 5687, "researchers": 18538, "the": 7720653, "cloud": 17409, "only": 479491, "meant": 16654, "of": 6563737, "ob": 30923, "their": 593570, "and": 6432377, "is": 4803024, "innocent": 2653, "scientific": 26238, "project": 61720, "amid": 3282, "##lite": 4663, "presence": 29633, "hanging": 6663, ".": 8701009, "was": 966018, "intellect": 1011, "achievement": 5559, "truly": 14005, ";": 518444, "lives": 38892, "what": 551978, "equally": 8293, "minds": 5070, "important": 194758, "communication": 23298, "All_Doc_Num": 8841823, "helped": 16281, "war": 91771, "history": 131239, "legacy": 6610, "peaceful": 3424, "have": 1283027, "on": 2467400, "world": 288587, "impact": 38306, "science": 52502, "ii": 45709, "bomb": 5406, "bring": 52860, "continues": 18717, "its": 537153, "end": 192959, "uses": 86925, "energy": 113104, "an": 1772979, "be": 1790548, "change": 149223, "possible": 111685, "-": 3088206, "known": 298217, "if": 1086718, "essay": 9512, "that": 2685108, "would": 287740, "powerful": 31602, "something": 112007, "this": 1647042, "man": 90786, "##made": 2570, "can": 1654987, "see": 361735, "making": 123341, "it": 2295446, "forever": 8777, "under": 254087, "control": 121687, "name": 299341, "conducted": 13254, "r": 92943, "u": 222430, "2": 1379026, "during": 287657, "period": 126121, "first": 574420, "1946": 5025, "a": 6156904, "refers": 58154, "194": 1789, "groves": 618, "develop": 55309, "general": 149463, "administration": 37495, "s": 1544343, "for": 3444662, "##\u00a6": 190530, "army": 30513, "corps": 8202, "leslie": 1726, ",": 7411743, "from": 1821661, "specifically": 31506, "website": 70728, "national": 136221, "##o": 173721, "www": 54198, "available": 178730, "gov": 16297, "versions": 17426, "##e": 463737, "interactive": 10021, "websites": 9973, "##70": 8691, "http": 51265, "volume": 46196, "security": 72904, "office": 111905, "me": 153543, "/": 736503, "##ath": 20173, "cf": 12100, ":": 1948863, "each": 355189, "nuclear": 15887, "resources": 45326, "complementary": 4341, "heritage": 10107, "well": 322533, "doe": 2746, "##ais": 3749, "age": 178024, "in": 5365740, "detonated": 250, "photograph": 5462, "weapon": 6547, "nicknamed": 2534, "new": 535057, "mexico": 34321, "16": 118133, "began": 51762, "july": 72543, "1945": 7651, "when": 840165, "##dget": 2789, "features": 66964, "had": 262587, "classified": 23693, "once": 138548, "scientists": 21726, "ga": 53823, "desert": 13958, "extra": 56701, "will": 945664, "document": 42092, "bombs": 2259, "not": 1183340, "does": 261145, "development": 80132, "##ord": 12346, "collection": 35957, "rich": 47350, "origins": 15032, "substitute": 10084, "##ina": 42768, "attempt": 17142, "##rily": 3211, "nor": 23907, "literature": 15991, "led": 34908, "1942": 4410, "direction": 30779, "laboratory": 16056, "alam": 3422, "director": 28598, "##pen": 18768, "states": 306528, "component": 26642, "support": 102348, "robert": 21420, "united": 249186, "major": 123280, "weapons": 7996, "los": 29781, "kingdom": 27186, "research": 94011, "canada": 51132, "designated": 17236, "##heimer": 579, "undertaking": 1595, "op": 35045, "designed": 70385, "with": 2368530, "##os": 74553, "by": 1854496, "actual": 41433, "produced": 70111, "physicist": 2735, "##gan": 9072, "june": 65118, "secret": 36342, "##be": 23547, "largest": 104969, "river": 57084, "##ford": 7494, "han": 5400, "reactor": 1508, "pacific": 25307, "b": 201181, "one": 1025950, "selected": 25106, "flowing": 7113, "reasons": 43054, "into": 536844, "columbia": 15979, "coast": 34500, "american": 195930, "'": 1830193, "proximity": 3980, "north": 136742, "site": 95456, "ocean": 36763, "main": 131154, "trauma": 13779, "boards": 8400, "panels": 7441, "##lita": 2224, "##tor": 50613, "##ci": 43433, "victim": 8106, "sexual": 23847, "assault": 5508, "or": 2644971, "skilled": 7121, "group": 151025, "issues": 47045, "dialogues": 259, "offender": 2775, "third": 78946, "dating": 11288, "domestic": 24968, "safety": 47923, "party": 53030, "has": 935311, "fa": 72075, "understanding": 35463, "discussions": 4081, "who": 485590, "requires": 54908, "sufficient": 12704, "community": 81201, "violence": 8947, "also": 860185, "done": 82545, "damage": 66604, "big": 90952, "sentence": 23981, "punishment": 4633, "brother": 18859, "ex": 129054, "program": 125651, "criminal": 24314, "act": 102467, "service": 191714, "##minate": 1642, "ind": 27998, "repair": 31646, "##eter": 9221, "##tive": 22445, "crime": 22194, "3": 1004799, "relationships": 15217, "##ora": 13654, "emphasizes": 2245, "1": 1682135, "respond": 15747, "processes": 35028, "all": 902989, "communities": 17288, "identifying": 9143, "between": 417074, "traditional": 48041, "involving": 15298, "harm": 13919, "people": 450545, "relationship": 36301, "introduction": 30143, "##ial": 34995, "repairing": 2634, "practices": 19342, "transformation": 5739, "programs": 61832, "theory": 32209, "caused": 111794, "stakeholders": 2368, "reflecting": 3215, "purposes": 34789, "responding": 3274, "governments": 9354, "taking": 79511, "transforming": 1841, "cooperative": 3779, "best": 299180, "accomplished": 5476, "through": 331927, "justice": 17812, "rest": 62994, "lead": 72912, "include": 240872, "tutor": 13615, "steps": 52810, "behaviour": 5916, "advocates": 2829, "committees": 2468, "ongoing": 9488, "volunteer": 6368, "victims": 6624, "organize": 5892, "staff": 41405, "discuss": 18817, "training": 65533, "meet": 54252, "local": 123275, "provide": 143201, "facilitate": 5852, "probation": 3614, "incident": 9765, "apologies": 345, "awareness": 9060, "invite": 4077, "process": 184114, "members": 74424, "obligation": 5938, "out": 529868, "point": 125869, "mediation": 1224, "review": 53599, "purpose": 55224, "underlying": 18123, "un": 177399, "paper": 54502, "##olved": 1293, "system": 287546, "present": 82401, "data": 168434, "growing": 50662, "principles": 15276, "##res": 17399, "then": 374132, "empirical": 2737, "amount": 176857, "number": 330011, "kind": 65347, "challenged": 2659, "eroded": 1081, "care": 146453, "order": 151590, "##ama": 9542, "ways": 77528, "(": 2531530, "these": 496064, "##y": 303992, "affected": 33620, "threatened": 4280, "different": 268326, "sense": 47973, "within": 204662, "depending": 114726, "degrees": 69314, "common": 275072, "injured": 11508, "but": 925758, "perhaps": 25865, "civil": 38274, ")": 2547869, "types": 170526, "values": 44602, "are": 2367080, "geographic": 10092, "society": 35922, "confidence": 21417, "rather": 59484, "foster": 7904, "##do": 28146, "considers": 4129, "shown": 51841, "satisfaction": 6570, "based": 227759, "approach": 27869, "##ing": 468066, "than": 645244, "highest": 67544, "offense": 6473, "individual": 87343, "accountability": 2728, "wrong": 27270, "##s": 2190595, "dialogue": 2683, "against": 91609, "rates": 57909, "state": 306826, "instead": 65784, "##r": 310153, "existence": 10705, "conceptual": 3085, "##a": 759016, "matter": 54844, "raises": 5163, "notion": 4025, "dispute": 5268, "usually": 273386, "complex": 47829, "adi": 10687, "parties": 18631, "ad": 105975, "offence": 1362, "concerning": 6982, "identifiable": 2098, "properly": 34484, "##ised": 8442, "inherent": 3206, "seen": 66409, "##as": 634202, "##ute": 15046, "however": 239622, "##sp": 55868, "many": 467725, "whether": 102459, "question": 71422, "described": 35381, "families": 32869, "solutions": 24975, "exclusively": 14194, "primary": 71000, "representatives": 13245, "range": 158759, "##en": 73140, "limit": 40939, "including": 239574, "circles": 4679, "##fer": 17604, "con": 130344, "friends": 38271, "distinction": 7366, "includes": 99849, "##cing": 14099, "wide": 78354, "circle": 16147, "participants": 8914, "focus": 36938, "do": 507544, "##ose": 16564, "##yn": 25250, "called": 323541, "vascular": 9310, "photos": 46731, "parts": 96518, "plants": 74237, "##cr": 33649, "su": 38836, "plant": 92429, "##rc": 27801, "conduct": 22340, "products": 115483, "ph": 101523, "##yle": 8129, "roots": 24100, "corresponding": 11463, "##ulates": 3172, "x": 118725, "tissue": 62461, "ci": 52436, "carries": 15766, "other": 789681, "##thesis": 9558, "##ive": 94063, "minerals": 24416, "found": 244138, "leaves": 44631, "##m": 199525, "glucose": 26830, "water": 317728, "##loe": 2042, "tissues": 31729, "work": 287207, "unit": 70955, "effective": 64388, "nutrients": 29273, "transportation": 20126, "perform": 40269, "food": 186477, "bundles": 2495, "about": 724235, "together": 100484, "they": 744248, "form": 253937, "unlike": 28639, "##tic": 67997, "dead": 34179, "made": 266808, "sap": 10133, "composed": 30522, "which": 987692, "still": 154496, "sugar": 76975, "cells": 136267, "solution": 49708, "areas": 96015, "transport": 22264, "primarily": 38682, "living": 86758, "##the": 21225, "creates": 18352, "sinks": 2632, "diffusion": 4212, "g": 181013, "pressure": 98256, "cell": 113949, "substance": 35023, "travels": 10313, "moves": 21171, "concentration": 21631, "##rgo": 2755, "bulk": 10623, "e": 282982, "flows": 13855, "organic": 28181, "inside": 78546, "tu": 36649, "leaf": 21368, "flow": 51998, "source": 108928, "vessels": 31134, "gradient": 3698, "##eve": 3814, "mechanism": 12758, "moved": 25148, "si": 37686, "elements": 44216, "transported": 5240, "molecules": 32117, "sources": 48001, "active": 59076, "at": 1525427, "##rs": 76920, "soluble": 12592, "responsible": 47464, "##lo": 72350, "like": 461793, "bulbs": 5070, "trans": 32686, "various": 91496, "organs": 32322, "replacing": 11426, "mineral": 22109, "tube": 27828, "transports": 2396, "storage": 33930, "##piration": 19461, "##cate": 7105, "lost": 38773, "time": 620287, "##wood": 17111, "workers": 33638, "industrial": 24786, "john": 61933, "saint": 10704, "100": 175808, "##w": 74638, "treasurer": 2056, "replaced": 20301, "1913": 3899, "000": 279341, "hay": 8737, "william": 24981, "membership": 15196, "vincent": 2655, "secretary": 13400, "i": 695285, "tres": 1952, "##tti": 3137, "mother": 49398, "were": 313893, "##lund": 440, "mary": 15599, "second": 151268, "generation": 22886, "arturo": 166, "jones": 11446, "hill": 19269, "immigrants": 5469, "ha": 41994, "several": 149041, "carlo": 1086, "harrison": 4298, "giovanni": 759, "result": 113929, "hubert": 522, "leaders": 14100, "such": 428914, "##ca": 37045, "became": 61650, "organization": 52501, "true": 60393, "joe": 10953, "##ag": 14691, "factory": 13736, "take": 291211, "agricultural": 9522, "acts": 24646, "jobs": 39962, "1850s": 893, "gold": 36570, "exclusion": 4376, "mines": 2917, "garment": 2712, "chinese": 22947, "migrated": 1495, "industry": 66992, "immigration": 10101, "especially": 98965, "warner": 4395, "corruption": 2815, "reflected": 5833, "##zzle": 3477, "1877": 1629, "inner": 28182, "outward": 4460, "poverty": 7462, "century": 67042, "authored": 1012, "charles": 17593, "co": 136634, "1900": 5965, "twain": 1125, "dudley": 479, "popular": 104734, "mark": 39713, "america": 91917, "gilded": 526, "1873": 1456, "rise": 32875, "novel": 15160, "gave": 22673, "entitled": 11385, "nineteenth": 3085, "term": 173639, "wealth": 10227, "late": 69177, "combination": 46928, "da": 30315, "so": 554054, "there": 687952, "china": 34403, "did": 92280, "took": 51224, "send": 43604, "came": 52746, "most": 785629, "back": 237525, "ethnic": 8262, "economic": 34365, "discrimination": 6039, "stemmed": 672, "generally": 117221, "objections": 731, "money": 99475, "forms": 82290, "tensions": 1241, "cultural": 18465, "laborers": 851, "few": 169571, "represented": 13454, "rapid": 19132, "dominance": 2362, "wage": 27444, "growth": 75308, "anticipated": 3936, "cities": 50336, "americans": 33442, "labor": 49357, "changes": 88108, "greatest": 21339, "1882": 1849, "restrict": 4565, "completely": 44035, "resulting": 27654, "per": 371592, "suspended": 6456, "##l": 258249, "terms": 87665, "angel": 5725, "treaty": 8509, "##lled": 8808, "years": 416232, "passed": 32308, "congress": 31639, "prohibit": 2425, "10": 411269, "permitted": 6649, "##ski": 3467, "overthrow": 1324, "formed": 49214, "class": 80499, "goal": 30664, "struggle": 6448, "groups": 49842, "policies": 18878, "1905": 2752, "labour": 5247, "federation": 4327, "revolutionary": 6804, "worker": 13585, "43": 32015, "radical": 4782, "organisation": 4700, "opposed": 12043, "solidarity": 631, "employing": 1830, "promote": 16138, "majority": 37006, "production": 68093, "railroads": 1342, "iron": 40378, "1890": 3146, "powered": 11772, "percent": 120169, "economy": 25422, "consumer": 24186, "coal": 11882, "nation": 35873, "rails": 2054, "steel": 28436, "lumber": 3952, "consumed": 10769, "before": 292417, "accounted": 3104, "90": 75845, "relations": 10334, "diplomatic": 2009, "legislation": 9953, "aimed": 4956, "resulted": 6641, "finally": 26117, "future": 48632, "sour": 8277, "##du": 37458, "climate": 36375, "tourists": 4282, "spots": 15628, "amazing": 17672, "destination": 18492, "majestic": 1781, "vacation": 17366, "temperate": 6046, "tourism": 6077, "costa": 6276, "assured": 2806, "eco": 8567, "prime": 25251, "assure": 3245, "factors": 74070, "visitors": 15328, "excellent": 26683, "medical": 151856, "##ve": 51563, "relaxation": 4216, "views": 23094, "rica": 2977, "experience": 122003, "recovery": 21781, "!": 288164, "firm": 30040, "patients": 85104, "easy": 96826, "tours": 6048, "last": 194095, "receive": 75551, "15": 203351, "more": 942085, "our": 366640, "services": 140148, "stop": 62248, "we": 475344, "difference": 75881, "health": 215378, "variety": 90870, "put": 109717, "shop": 31586, "offering": 21107, "##ne": 93855, "aim": 12660, "mind": 54219, "tourist": 7952, "##ties": 15309, "become": 125216, "you": 1956667, "mt": 11914, "packages": 10513, "ao": 28051, "your": 1466009, "special": 89053, "cost": 226577, "]": 140989, "following": 189258, "treatment": 127291, "procedures": 26048, "equivalent": 32054, "comparisons": 3773, "[": 141542, "skin": 138160, "##ric": 30151, "res": 40338, "aesthetic": 3545, "##scopic": 2428, "cosmetic": 6036, "spread": 44432, "##ox": 46073, "##at": 136421, "lap": 8262, "dental": 22170, "##ur": 42324, "##aro": 7140, "etc": 88207, "surgery": 51681, "treatments": 22532, "bot": 6600, "bari": 3161, "##fa": 30692, "initially": 13812, "dentistry": 2636, "cook": 48223, "remains": 29222, "seven": 48103, "client": 21636, "very": 290371, "insurance": 78241, "hospital": 44695, "international": 74365, "running": 51206, "department": 76179, "brothers": 10677, "year": 415466, "patient": 61236, "serves": 23244, "##bl": 10810, "writing": 41184, "clinic": 16295, "respected": 3281, "busiest": 2248, "saw": 24418, "wall": 55168, "inn": 12021, "##tors": 12100, "bill": 48567, "bi": 39999, "while": 308657, "brad": 3568, "travel": 62034, "##ova": 5605, "vision": 29872, "us": 230277, "##aries": 6222, "##ica": 31549, "boom": 5536, "plastic": 32478, "rising": 12331, "coverage": 33777, "combining": 7398, "off": 202841, "area": 239695, "decreased": 12088, "costs": 107658, "sector": 11677, "concept": 26469, "taken": 68630, "era": 20725, "decade": 13362, "top": 203766, "higher": 114745, "having": 108459, "expect": 49375, "amongst": 5308, "figure": 56110, "life": 217063, "level": 155406, "##ancy": 10935, "countries": 60852, "78": 23067, "hospitals": 13812, "bank": 57273, "latin": 42724, "ranked": 17997, "7": 298407, "choice": 46676, "particularly": 36422, "mere": 4746, "quality": 99968, "healthcare": 23519, "much": 286116, "price": 131101, "foreigners": 1168, "evolved": 9635, "country": 110366, "home": 262748, "lower": 134770, "being": 212360, "emerged": 5671, "seek": 15217, "##ries": 26247, "surge": 6698, "foods": 86300, "disease": 160593, "amber": 3423, "dark": 44046, "yellow": 46472, "urine": 35761, "unusual": 14714, "shades": 5403, "##ine": 104040, "turn": 83602, "##less": 42697, "often": 277679, "color": 96484, "pale": 12982, "medications": 35630, "certain": 114180, "multi": 57636, "##mins": 2121, "abnormal": 28136, "eating": 48514, "##vita": 3322, "##aur": 2437, "colors": 33804, "bright": 20516, "now": 243685, "related": 131653, "normal": 110566, "got": 60907, "drinking": 25372, "4": 653829, "##fe": 35633, "##inated": 4658, "ur": 69298, "cups": 17266, "today": 125468, "topics": 16571, "light": 115972, "coffee": 23742, "##ination": 9680, "red": 150029, "bull": 11538, "drank": 1686, "lot": 105741, "worried": 4602, "my": 309951, "happened": 12534, "after": 451368, "caf": 14165, "hours": 189454, "visual": 24702, "interpreted": 3509, "examination": 16250, "obtained": 17711, "signs": 49971, "observes": 1381, "may": 747245, "microscopic": 5674, "##ator": 11822, "examinations": 2535, "confirm": 11571, "##ian": 36163, "clarity": 3512, "chemical": 71022, "conjunction": 7763, "results": 96095, "substances": 25792, "go": 238085, "stuff": 17640, "liquid": 50921, "waste": 29012, "hint": 3880, "how": 555573, "smell": 17878, "pee": 4826, "bad": 54276, "details": 53609, "kidney": 46200, "give": 124271, "##ic": 140137, "mainly": 30245, "acid": 68279, "chemicals": 22378, "going": 93729, "##ea": 49620, "basic": 81937, "body": 314034, "filter": 17231, "salt": 62369, "blood": 240641, "make": 399338, "toxin": 10935, "section": 76467, "another": 194560, "example": 235887, "##li": 37203, "some": 590020, "brown": 50930, "part": 300115, "indicator": 9133, "occur": 84880, "##ry": 94551, "##ru": 40645, "sign": 75085, "colored": 15551, "greenish": 1736, "##bin": 15509, "fluid": 49516, "right": 225791, "di": 146123, "could": 170422, "been": 399498, "de": 152464, "drug": 70494, "##ure": 39791, "fluids": 12701, "##ave": 26956, "##dra": 48511, "helps": 71373, "##hy": 65518, "rid": 18458, "honey": 15197, "shade": 9240, "get": 446549, "away": 97155, "no": 436658, "because": 308767, "##ted": 69139, "need": 336639, "##are": 72718, "drink": 40578, "good": 230211, "besides": 9578, "down": 215810, "##all": 55075, "any": 469156, "below": 208788, "thumb": 12934, "darker": 5974, "rule": 42087, "things": 114565, "tell": 63433, "earliest": 11507, "medicine": 53348, "##cre": 29105, "hue": 4826, "since": 187626, "policy": 52326, "useful": 57267, "human": 110814, "problems": 98875, "reveal": 7776, "days": 224376, "tool": 47405, "advertising": 10461, "here": 270911, "starters": 1824, "##ta": 58850, "density": 24044, "diagnosis": 30448, "concerned": 14593, "long": 294325, "concentrated": 7721, "bladder": 17462, "returned": 14689, "profit": 25242, "mission": 22753, "cleveland": 8259, "non": 158358, "center": 126192, "academic": 22960, "##ation": 70984, "##de": 64809, "##im": 28389, "##rr": 32714, "##oids": 7644, "##so": 27346, "##ter": 58172, "metabolic": 10921, "##ych": 2318, "auto": 53404, "therapy": 36870, "##bina": 2922, "hepatitis": 8983, "early": 126694, "##ts": 77900, "cancer": 73025, "##rti": 38861, "##age": 61441, "##ology": 15291, "##therapy": 5074, "mono": 29835, "##ra": 66382, "##tion": 85564, "analysis": 39484, "c": 162351, "##ti": 43780, "hereditary": 4353, "ud": 4042, "comparing": 6561, "injuries": 18284, "combine": 20504, "##hosis": 4610, "disorders": 33547, "##ast": 17586, "##olic": 4786, "infections": 41996, "unknown": 17492, "adults": 47048, "alcohol": 42285, "##lia": 22188, "##pies": 11694, "##mun": 28495, "cause": 227729, "diseases": 47752, "liver": 45731, "om": 32388, "transplant": 8657, "rc": 5166, "##cos": 20625, "ae": 28916, "performed": 33454, "meta": 22984, "cho": 38031, "presenting": 3896, "upper": 59140, "childhood": 13174, "presentation": 9864, "##uron": 8234, "synthesis": 10850, "ne": 85935, "##esis": 4758, "electro": 18191, "produce": 70722, "errors": 10767, "##isation": 4677, "spec": 12533, "adult": 45047, "acids": 28297, "##tat": 6706, "##stic": 13937, "##born": 4014, "##ray": 3434, "tandem": 1412, "progressive": 10080, "##par": 13964, "neurological": 5975, "test": 131979, "##et": 44017, "screening": 10789, "presents": 9081, "he": 567665, "mass": 51074, "achieved": 11476, "para": 26341, "later": 92818, "infancy": 1774, "ion": 13722, "spa": 28331, "##lan": 12378, "bile": 8159, "motor": 37924, "threatening": 10837, "##trom": 1572, "##les": 53332, "h": 134711, "syndrome": 37191, "demonstrates": 3694, "%": 311518, "again": 74740, "antigen": 7285, "associated": 87128, "poly": 40519, "##and": 14346, "cross": 37482, "##yte": 5066, "##talk": 1176, "up": 671261, "##uk": 7246, "34": 36502, "##oc": 44741, "disturbances": 2412, "gland": 22394, "older": 53186, "genetic": 29560, "sex": 42073, "might": 127512, "affects": 31685, "thyroid": 18278, "female": 48532, "le": 29633, "##las": 24452, "interaction": 9363, "##ular": 27765, "##gl": 9617, "fatty": 17755, "medium": 50358, "slowly": 20739, "int": 52438, "t": 471878, "duct": 14306, "destroyed": 8065, "vitamin": 53066, "p": 116252, "small": 226219, "remain": 28736, "function": 90851, "scar": 10623, "progresses": 3099, "loses": 4853, "##ring": 25357, "ability": 57051, "sized": 18069, "destroys": 2292, "##est": 92730, "causes": 136360, "chronic": 41417, "gradual": 3974, "increases": 37502, "fat": 88682, "##bc": 5304, "digest": 43988, "where": 305923, "damages": 8302, "injury": 47121, "inflammation": 39370, "attacks": 17197, "rim": 8527, "hem": 37512, "due": 136813, "##cellular": 8075, "around": 251866, "immune": 31020, "##och": 13919, "risk": 91509, "##ma": 73669, "car": 171946, "##sis": 42111, "##cino": 7954, "95": 34396, "cases": 88943, "##ato": 16197, "##to": 59988, "women": 101576, "##pa": 41323, "alcoholism": 2266, "##ary": 41326, "##rom": 29472, "leading": 46721, "50": 180507, "affect": 56636, "covered": 47325, "##me": 56419, "##genesis": 2481, "##uss": 4900, "##\u00b2": 21548, "##mal": 20671, "al": 89628, "et": 50368, "ferdinand": 1677, "oxidation": 6001, "##iso": 5777, "bio": 47939, "ni": 38902, "##med": 19354, "institute": 19344, "diabetes": 32463, "pub": 11495, "##h": 139311, "gloss": 8414, "serum": 8016, "##tus": 18390, "antagonist": 4523, "##xon": 2591, "aid": 27095, "surfaces": 13933, "formation": 22900, "##ion": 90009, "##ider": 7721, "##mpt": 29838, "##lt": 17296, "##ed": 255550, "tree": 43598, "##cytes": 5779, "interactions": 8611, "two": 526079, "##tas": 10282, "fact": 84789, "na": 46676, "treat": 64867, "thought": 49190, "pr": 27013, "ile": 3663, "##is": 103772, "##ess": 15900, "canal": 13519, "##io": 38652, "adjacent": 11066, "nerves": 20280, "similar": 100833, "##id": 66063, "##re": 85543, "##chin": 3589, "used": 590474, "##uli": 12146, "##uri": 23166, "##om": 49440, "terminal": 14418, "branches": 16741, "sy": 57108, "##gic": 8134, "begins": 41417, "harvest": 8580, "records": 56367, "motive": 1133, "talmud": 247, "winter": 42172, "frequently": 36033, "doing": 46819, "determine": 70210, "opposite": 23900, "wanting": 4357, "even": 249858, "##rin": 25968, "justify": 2228, "starting": 53511, "san": 48738, "##hed": 6119, "barley": 4673, "start": 153788, "use": 579926, "occasionally": 16326, "should": 317131, "##ser": 22924, "##vance": 2406, "god": 31844, "israel": 7399, "holy": 8089, "annual": 85855, "determining": 15191, "deciding": 5652, "claim": 41233, "feast": 2921, "factor": 36965, "timing": 8648, "europe": 44950, "beverages": 8162, "cultivated": 4506, "member": 64692, "##der": 25834, "family": 173024, "##um": 87533, "beer": 15617, "animal": 55551, "##ent": 44729, "medieval": 6897, "fe": 75988, "cuisine": 6978, "##od": 31953, "grain": 17893, "grass": 18352, "eaten": 12235, "staple": 5613, "cereal": 9487, "horde": 899, "l": 118630, "##sti": 39231, "grown": 24274, "f": 159487, "widely": 36899, "peasants": 820, "tibetan": 1034, "material": 71273, "vulgar": 2438, "##rm": 53758, "grains": 15278, "##able": 101147, "giving": 32219, "previous": 37644, "moon": 21544, "postponed": 613, "never": 85858, "earlier": 30819, "thereby": 6000, "13th": 5361, "month": 113581, "olive": 18719, "season": 95499, "summer": 58094, "autumn": 6355, "completed": 29284, "november": 48072, "ancient": 37434, "crops": 8454, "extended": 23121, "subdivided": 1743, "tab": 36010, "three": 261031, "seasons": 16086, "april": 74094, "##ern": 9627, "spring": 43748, "festivals": 3125, "grape": 7886, "##acle": 3000, "relatively": 33717, "rye": 3630, "##vu": 16345, "wheat": 14692, "tolerant": 2215, "cold": 82142, "##cal": 24457, "australia": 33984, "britain": 18149, "drought": 4406, "cam": 11841, "##wn": 7494, "tri": 39512, "crop": 10560, "##tm": 7044, "##us": 126279, "fall": 62046, "short": 122576, "great": 168921, "sec": 9788, "##ale": 8048, "wit": 3193, "##tical": 2128, "warmer": 7274, "##sr": 3033, "ripe": 6472, "##hea": 52209, "aw": 24008, "chart": 33975, "reproduced": 1509, "##ns": 70951, "##zer": 10177, "sixth": 9616, "##row": 7620, "q": 38646, "page": 125238, "bo": 39402, "manual": 20260, "book": 77143, "w": 94205, "##k": 115526, "88": 24926, "##t": 436639, "##rh": 19923, "ge": 43784, "according": 170550, "37": 38734, "y": 57130, "harvested": 4100, "hi": 49092, "occasions": 4135, "jerusalem": 2336, "##nge": 8140, "##ai": 14317, "##aris": 2034, "decided": 19440, "obviously": 9889, "correct": 42274, "centuries": 13528, "d": 185946, "##cede": 2609, "jericho": 368, "given": 115587, "near": 89024, "exodus": 1055, "pre": 137191, "locality": 1991, "palestine": 1086, "9": 199076, "beginning": 47868, "31": 50312, "until": 165319, "rains": 3004, "always": 114477, "march": 68897, "concluded": 3886, "##ven": 16682, "mature": 14786, "17": 85668, "##ost": 15000, "verses": 1523, "##tec": 5526, "##he": 52613, "festival": 11277, "sooner": 4971, "offerings": 3274, "##ned": 6181, "pen": 21611, "offered": 26946, "faster": 27774, "##uit": 15917, "##d": 321012, "##fr": 18334, "included": 53200, "planted": 6970, "bread": 22126, "23": 59504, "##lea": 17932, "loaf": 2403, "side": 172297, "pan": 65625, "##tis": 35698, "sp": 75232, "illnesses": 8591, "abdominal": 22482, "ribs": 9519, "##ati": 15849, "left": 120203, "##otho": 1206, "##leen": 5216, "##sse": 8116, "sac": 15844, "##ction": 20816, "##rta": 8777, "stones": 13125, "disorder": 44516, "##x": 163211, "pain": 145459, "heart": 133348, "##rd": 19105, "serious": 53700, "##rit": 23176, "situation": 28342, "dying": 5891, "involved": 43046, "danger": 9252, "immediate": 16195, "internal": 46189, "##or": 97798, "cage": 6650, "gas": 105508, "feeling": 31659, "colon": 18776, "stuck": 8169, "just": 369018, "why": 102103, "excessive": 20219, "chance": 34745, "rib": 19051, "##sam": 10102, "frog": 2644, "thor": 10475, "column": 22863, "##cl": 45456, "ve": 149400, "lamp": 5105, "##gua": 10804, "##bra": 16547, "##rte": 12997, "except": 34322, "##oses": 2714, "##bi": 18334, "animals": 59262, "stern": 5697, "##rey": 1404, "##brates": 4552, "##ax": 13038, "lungs": 29255, "bones": 31210, "arrangement": 8898, "en": 97574, "ray": 21299, "set": 186553, "damaged": 18561, "extent": 15319, "likely": 81905, "twist": 6183, "bend": 8700, "tries": 5512, "worse": 25175, "sharp": 16897, "study": 87944, "large": 183512, "protected": 14874, "##dder": 6247, "stomach": 46752, "region": 66379, "##bla": 13618, "abdomen": 16084, "vital": 21066, "lie": 18621, "gall": 13043, "aids": 11465, "##ph": 79663, "dia": 67372, "chest": 32082, "person": 191839, "noted": 15364, "cavity": 14732, "##rag": 8241, "contained": 16654, "breathing": 23432, "##nl": 4037, "o": 181565, "irritation": 11221, "portion": 38085, "feel": 73532, "pains": 5919, "##ber": 20658, "##ge": 62080, "rev": 24476, "##er": 351532, "towards": 22061, "##ating": 21761, "##pt": 39841, "already": 63600, "ru": 18074, "##ured": 12768, "consists": 45624, "crest": 5687, "numbered": 3145, "shaft": 6276, "##icular": 6430, "head": 93735, "##iculate": 3350, "surface": 93052, "horizontal": 10829, "divided": 35712, "closest": 13131, "art": 59601, "spine": 16083, "face": 63496, "shaped": 26802, "marked": 16815, "neck": 36602, "bottom": 60902, "condition": 100867, "come": 120456, "possibility": 8587, "caught": 10890, "##lux": 7898, "fairly": 18125, "##ond": 13174, "medication": 40735, "ref": 62501, "simple": 91323, "either": 129065, "require": 68365, "less": 204005, "resolve": 8679, "alabama": 13665, "buildings": 15830, "churches": 3925, "wheeler": 1108, "manufacturing": 18917, "offices": 16968, "commercial": 43279, "restaurants": 16818, "concrete": 21815, "south": 122853, "1981": 11075, "projects": 20955, "handled": 5043, "inc": 79294, "colleges": 14399, "retail": 22238, "carolina": 30359, "georgia": 23649, "##mark": 12752, "llc": 12315, "current": 116458, "chief": 24504, "oversees": 1931, "2016": 87765, "financial": 63327, "manages": 4196, "his": 392811, "steve": 9503, "philosophy": 10823, "lend": 16867, "named": 65304, "january": 70773, "role": 71039, "strategy": 16409, "both": 267001, "officer": 24724, "credit": 90095, "grade": 28080, "building": 68694, "additionally": 9649, "hard": 87565, "storm": 13540, "specialized": 15865, "business": 162110, "slabs": 1578, "management": 78331, "paving": 1563, "division": 33464, "contractor": 13471, "landscaping": 2554, "elevated": 10926, "staircase": 1368, "duty": 21239, "decks": 2247, "##sca": 7090, "##ping": 14453, "walls": 25190, "structures": 27203, "heavy": 39657, "foundations": 3257, "retaining": 3125, "residential": 17464, "dr": 80704, "riga": 328, "academy": 15452, "emergency": 26550, "##rea": 14723, "works": 90022, "41": 28446, "she": 164483, "##dy": 14045, "regional": 20255, "specializes": 6107, "graduated": 7293, "latvia": 871, "mcc": 7106, "foundation": 25398, "##n": 247713, "location": 98227, "##4": 121360, "cr": 99701, "59": 28560, "1977": 7889, "peninsula": 9084, "latvian": 263, "md": 20365, "affiliated": 6033, "01": 31922, "atlantic": 17789, "##field": 10310, "med": 33701, "20": 223074, "expertise": 7662, "finance": 14738, "##zation": 8101, "funding": 9162, "compliance": 11344, "operational": 7090, "extensive": 15005, "recently": 38168, "learn": 112492, "click": 140048, "school": 134528, "education": 77682, "&": 252958, "proud": 9637, "constitutional": 8752, "minnesota": 14853, "reserves": 4729, "kappa": 862, "##\u00a9": 65483, "bachelor": 22497, "##20": 19679, "university": 88651, "arts": 19152, "veteran": 7075, "legal": 64088, "beta": 13817, "served": 32516, "holds": 20973, "degree": 77430, "##17": 7357, "phi": 3324, "appointments": 3695, "information": 303313, "doctor": 97323, "please": 101093, "verify": 11743, "accepted": 22036, "directly": 66579, "tennessee": 15724, "licensed": 19816, "son": 44338, "k": 84781, "8": 295086, "butcher": 2429, "##an": 62253, "positively": 3199, "##keeper": 1822, "father": 44526, "1841": 1101, "musician": 6035, "\u00a1": 17408, "september": 58786, "boy": 27368, "obstacles": 2085, "pursuit": 2826, "encouraged": 5017, "amateur": 2890, "wife": 31837, "way": 270035, "##aa": 36059, "career": 52676, "1904": 2595, "##vo": 26198, "anton": 1624, "contrary": 5273, "musical": 14399, "legend": 8984, "born": 111588, "organ": 30181, "studied": 11141, "##in": 139957, "1859": 1675, "##90": 8677, "##a1": 20103, "##vor": 9381, "##ak": 17780, "follow": 71861, "music": 65371, "prague": 1277, "trade": 36051, "assisting": 2739, "##lah": 950, "19th": 16053, "composer": 3715, "language": 75063, "##eves": 335, "czech": 3885, "bohemia": 552, "leopold": 496, "folk": 5655, "austrian": 1834, "republic": 21100, "full": 171850, "##oz": 8470, "turning": 17382, "empire": 18336, "achieve": 22640, "recognition": 8969, "romantic": 8172, "worldwide": 24023, "bohemian": 678, "bbc": 4714, "biography": 8757, "followed": 35480, "facing": 11972, "evident": 3959, "him": 81781, "environment": 51247, "ka": 38178, "natural": 103630, "poor": 28623, "supported": 15118, "rural": 12442, "##ity": 66349, "drift": 3758, "village": 21807, "overview": 34140, "mini": 21558, "spouse": 14644, "5": 585447, "jump": 13337, "##via": 9618, "|": 67573, "piano": 5077, "partly": 7262, "spiritual": 9025, "opera": 6072, "adapting": 986, "symphony": 1427, "slaves": 6192, "african": 28293, "pieces": 26973, "##aka": 2307, "spill": 4011, "##al": 183348, "iowa": 10325, "facts": 39769, "quick": 55179, "##ville": 30619, "moving": 38917, "1892": 2056, "letter": 35293, "population": 111704, "johannes": 782, "##ting": 55318, "praising": 301, "town": 62093, "brahms": 157, "wrote": 20675, "1893": 2204, "spent": 23256, "fran": 5627, "ground": 62244, "nine": 27669, "house": 106038, "grandparents": 2314, "cottage": 3384, "anna": 5837, "floor": 43420, "1818": 1209, "##ek": 5263, "ran": 14870, "12": 217582, "children": 123168, "lived": 25339, "soundtrack": 3842, "baton": 1775, "##olis": 2980, "sm": 18620, "vi": 29317, "##eta": 10606, "violinist": 371, "joined": 17148, "theatre": 7849, "##rich": 3252, "orchestra": 2789, "1860s": 747, "##na": 53064, "bed": 32184, "burden": 5731, "bear": 16169, "senior": 20226, "means": 180606, "hike": 5388, "premium": 26990, "social": 90053, "citizens": 19017, "medicare": 22201, "cannot": 70428, "seems": 31221, "oct": 19213, "increase": 97736, "minority": 5015, "cola": 5924, "2015": 114049, "projection": 3136, "league": 24506, "continue": 52587, "##pace": 4112, "unofficial": 2216, "typical": 53356, "benefits": 93119, "slightly": 41149, "expenses": 26740, "benefit": 41820, "past": 73125, "decades": 16830, "average": 295701, "overall": 46045, "income": 85219, "rely": 8097, "news": 72431, "monthly": 40019, "didn": 33199, "checks": 14086, "retire": 6045, "##es": 192317, "adjustment": 6596, "nearly": 51204, "ss": 21091, "others": 97990, "prices": 57371, "##ith": 15257, "million": 115454, "automatically": 26394, "next": 132338, "##i": 167863, "supplemental": 4856, "65": 46912, "say": 94125, "2017": 74444, "wednesday": 20584, "recipient": 6812, "slight": 9367, "recipients": 3813, "run": 99919, "trust": 22163, "fund": 18454, "projected": 5677, "previously": 22364, "trustees": 1972, "predicted": 3910, "released": 57651, "projections": 3328, "66": 24558, "entire": 55534, "retirement": 21785, "##ct": 79705, "turns": 19602, "earned": 31687, "880": 2530, "earnings": 19034, "$": 488914, "stay": 54195, "@": 32728, "zoom": 3918, "+": 112976, "pm": 39348, "02": 25172, "2014": 90430, "getting": 75729, "check": 150565, "typically": 114962, "equals": 11728, "someone": 76615, "four": 158813, "final": 46080, "determined": 31080, "70": 66964, "121": 6353, "149": 5777, "avoid": 50538, "able": 103351, "estimated": 45695, "report": 100112, "80": 71510, "104": 11743, "enroll": 7709, "##ees": 3840, "exceeds": 6462, "rate": 150347, "##am": 41706, "00": 88668, "don": 148370, "25": 146344, "challenging": 7700, "n": 171011, "hands": 40313, "ville": 629, "call": 106210, "##g": 136303, "montreal": 2987, "speaking": 20836, "##back": 12030, "culture": 37362, "english": 120490, "gr": 52471, "notre": 1328, "locals": 3294, "neighbourhoods": 164, "looking": 78888, "attitude": 5292, "condo": 7066, "##ce": 75021, "sale": 43880, "##\u00a2": 70705, "laid": 9394, "dame": 2011, "##own": 15445, "registered": 37255, "com": 206100, "duly": 578, "##free": 4305, "private": 49916, "du": 30266, "estate": 41160, "provinces": 4372, "exposure": 26435, "quebec": 3977, "##pr": 22122, "*": 75004, "applicable": 14272, "manitoba": 1340, "alberta": 3660, "network": 68953, "commons": 3352, "sellers": 5404, "offers": 69651, "property": 81179, "##ense": 4895, "sell": 32331, "##ers": 134320, "british": 46558, "saskatchewan": 1305, "provided": 62505, "those": 195835, "save": 58064, "##pro": 29058, "team": 72896, "owner": 35229, "model": 59852, "ontario": 8840, "broker": 11696, "real": 110194, "qc": 1009, "vie": 2355, "mont": 5371, "##ral": 20860, "##ux": 5994, "compare": 30090, "old": 176626, "condom": 2694, "##inium": 2105, "island": 53329, "studio": 15919, "proposes": 1228, "bedroom": 8737, "200": 76414, "42": 35395, "beacon": 1419, "units": 44037, "24": 116712, "vida": 512, "across": 81993, "##alle": 1961, "adam": 7471, "##sfield": 1505, "##houses": 1445, "phase": 22524, "las": 17158, "storey": 793, "agents": 19390, "trend": 14276, "choices": 19513, "developments": 3312, "goals": 21109, "perfect": 46120, "city": 206643, "difficult": 46883, "located": 166478, "meeting": 22971, "narrow": 15956, "sam": 13443, "##con": 38974, "inspired": 11457, "sq": 24078, "##5": 106490, "ft": 39310, "marie": 6164, "design": 65939, "490": 2624, "intimate": 2872, "customized": 4190, "109": 8828, "contemporary": 9903, "ranging": 17989, "granted": 11587, "rent": 24517, "##ng": 49210, "peel": 8963, "amenities": 5504, "griffin": 1665, "district": 39266, "super": 45825, "finished": 16739, "investment": 25968, "interesting": 22474, "bu": 29925, "##ly": 256047, "apt": 4287, "350": 24524, "street": 41447, "##idi": 14694, "##town": 9614, "max": 16027, "##real": 2572, "selling": 23488, "downtown": 15702, "specialising": 294, "build": 53236, "buying": 22451, "homes": 38677, "##sal": 11481, "loft": 2409, "apartments": 6305, "buy": 66940, "re": 294320, "alex": 4971, "michael": 23112, "martin": 13736, "##tea": 7266, "#": 73165, "la": 64189, "kay": 4785, "action": 62485, "construction": 38057, "##ty": 50038, "constructions": 585, "maison": 252, "neighbourhood": 716, "ho": 53369, "bedrooms": 3624, "##mont": 3677, "343": 1655, "hoc": 2526, "neighborhood": 11673, "featuring": 10985, "##uet": 1063, "##ua": 20580, "boss": 6615, "rose": 22432, "##0": 146954, "##on": 130566, "diego": 9304, "##neuve": 116, "##hel": 6849, "stimulation": 5562, "response": 48348, "flashlight": 1006, "forth": 10914, "pupils": 2548, "pupil": 3403, "reaction": 37980, "swinging": 1265, "##sen": 12853, "reaches": 16135, "front": 63666, "direct": 58734, "swing": 5770, "eyes": 46173, "##su": 13788, "##lary": 1580, "object": 39822, "close": 75097, "reduction": 15874, "reflex": 6152, "eye": 67814, "size": 152528, "coming": 35335, "accommodation": 4108, "smaller": 52535, "phrase": 18896, "television": 36505, "responsive": 3419, "contraction": 13493, "iris": 3728, "equal": 55437, "muscles": 53339, "series": 99549, "##st": 81852, "nerve": 39956, "##tina": 9039, "problem": 84734, "complaining": 1127, "differentiate": 4719, "optic": 5768, "severe": 58809, "##cular": 12078, "cat": 58822, "##ara": 11064, "rap": 8492, "defect": 5810, "##omo": 4074, "working": 86409, "##ater": 4910, "type": 259479, "ip": 24332, "mean": 97689, "pathway": 5489, "indicates": 20736, "happen": 26494, "##cer": 27948, "doesn": 79833, "##sil": 3287, "##oto": 8205, "output": 21076, "##cu": 22646, "##lom": 6889, "vis": 11540, "##mp": 42022, "balance": 47017, "leads": 20981, "systems": 74113, "encompass": 2386, "##la": 52179, "sympathetic": 3388, "nervous": 27130, "task": 21148, "##etic": 6296, "##sy": 16911, "##cter": 12697, "physiology": 5256, "muscle": 78629, "fibers": 15459, "##vation": 2137, "circular": 9054, "##hin": 9869, "behind": 48382, "accomplish": 6527, "##lio": 4185, "saliva": 9865, "##inal": 6011, "mediated": 2794, "##no": 50150, "responses": 9665, "tests": 45357, "##mic": 30286, "larger": 61090, "actually": 88415, "illuminated": 1323, "##nate": 6848, "##cor": 13004, "indirectly": 3373, "##umi": 6048, "shape": 45634, "performing": 15452, "observe": 6517, "##ia": 96635, "happening": 8383, "sometimes": 122652, "ill": 16956, "exam": 22938, "pulled": 9512, "census": 47502, "ke": 37231, "##47": 7133, "zip": 30285, "229": 2290, "va": 67738, "##swick": 144, "code": 103716, "line": 119431, "##34": 5623, "preferred": 13832, "metro": 12613, "charlotte": 6629, "201": 3231, "0": 199893, "ms": 29145, "55": 41027, "cbs": 9172, "##26": 6032, "##sa": 49699, "1540": 492, "##9": 124438, "##sville": 5144, "key": 87221, "##mut": 4157, "mile": 34470, "square": 76648, "##mute": 3507, "##p": 174049, "ratio": 34377, "total": 156850, "=": 94440, "gains": 7319, "place": 223263, "day": 325582, "td": 6279, "greater": 49381, "virginia": 30605, "county": 154392, "##mar": 12987, "##q": 38438, "usa": 43199, "search": 86668, "find": 277393, "codes": 30632, "##le": 116687, "post": 87483, "contact": 98630, "miles": 107901, "covers": 30810, "demographic": 5040, "11": 133258, "2000": 51880, "08": 24660, "contains": 89821, "##tes": 57433, "52": 30523, "wealthy": 4619, "capita": 4929, "relative": 25334, "208": 3578, "2010": 84647, "##qua": 12169, "##6": 127122, "344": 1645, "know": 203430, "welcome": 36738, "virtually": 9657, "\u00bb": 33266, "want": 214800, "detailed": 30139, "profile": 25315, "open": 138004, "library": 21028, "links": 29356, "quickly": 52458, "05": 21688, "tavern": 1151, "louisa": 538, "##van": 4518, "alias": 1824, "unique": 53470, "savings": 21731, "##11": 13089, "##ps": 43531, "boyd": 1054, "classification": 13964, "elevation": 12546, "flu": 32874, "##well": 9400, "##59": 3816, "campbell": 3379, "318": 1768, "fi": 56884, "cis": 3154, "eastern": 34439, "latitude": 11731, "zone": 33181, "longitude": 7894, "counties": 16717, "38": 36119, "sha": 15231, "es": 58266, "gm": 14817, "51": 27901, "yes": 43180, "##bham": 110, "mill": 30726, "thousand": 14417, "ten": 45918, "pace": 10579, "happens": 30269, "anything": 49546, "every": 200407, "quiet": 8649, "reason": 56736, "thing": 70746, "towns": 15116, "slower": 6431, "little": 133331, "rumor": 1523, "keep": 139840, "public": 112534, "suburban": 3678, "stats": 5607, "demographics": 6633, "statistics": 34929, "2018": 22105, "lips": 9565, "cheeks": 3163, "ensure": 40103, "mast": 7095, "swallowing": 6054, "chewed": 997, "pal": 21838, "tongue": 16281, "##ble": 67181, "##di": 33672, "adequately": 2518, "##ication": 3120, "stages": 17376, "involves": 31788, "##ate": 53781, "mixed": 24222, "prepared": 24335, "oral": 29731, "##ryn": 6445, "swallow": 4437, "preparatory": 844, "mouth": 50655, "coordinated": 3354, "##op": 88433, "phases": 6783, "##ulsive": 1296, "prop": 21041, "activity": 56747, "##nx": 3647, "##gus": 15579, "##ha": 48791, "dropping": 5685, "1983": 8325, "log": 30902, "1989": 10356, "voluntary": 7009, "##ney": 6937, "throat": 26332, "1997": 14448, "##emann": 425, "stage": 41625, "mechanical": 17786, "1994": 11924, "tasted": 1080, "cher": 5916, "initiated": 4287, "move": 76537, "xii": 723, "v": 64253, "##uc": 33272, "xi": 4473, "##lus": 8108, "passes": 16377, "posterior": 9909, "cn": 12356, "duration": 20152, "arches": 1548, "pillars": 1220, "vii": 3189, "ix": 3401, "anterior": 11722, "sections": 16566, "loss": 84501, "obstruction": 6670, "article": 66233, "air": 144137, "elderly": 7978, "pneumonia": 9019, "weight": 114938, "##way": 14578, "##pha": 31835, "delicate": 5706, "easily": 59348, "disturbed": 1888, "difficulty": 16777, "itself": 61741, "brought": 25243, "minor": 25329, "##ys": 32051, "##gia": 10704, "13": 105561, "14": 118496, "coupling": 1423, "individuals": 49248, "findings": 8792, "healthy": 66647, "sensory": 10632, "contribute": 18632, "approximately": 82882, "increased": 53684, "prevalence": 4382, "increasing": 25827, "diminished": 1995, "##uti": 6056, "fit": 39305, "swallowed": 2143, "chewing": 4859, "hold": 58632, "sul": 11151, "##lat": 7862, "##uro": 32260, "lateral": 11704, "lip": 23903, "##mus": 15522, "closure": 4670, "##cca": 7366, "grinding": 3517, "motion": 27821, "tension": 9969, "##scu": 8537, "keeps": 15873, "spilling": 522, "rotary": 2252, "components": 32320, "lab": 19541, "jaw": 9915, "mu": 67991, "conditions": 107973, "myriad": 2031, "impaired": 5438, "plan": 97304, "keys": 11386, "safely": 11184, "aviv": 731, "therapeutic": 7527, "jonathan": 3623, "therefore": 55296, "##nto": 2274, "boundaries": 10461, "04": 22637, "1836": 1880, "86": 25066, "louisiana": 12633, "land": 84322, "##66": 4968, "30": 217217, "58": 24869, "map": 48987, "formal": 22282, "ascension": 595, "parish": 4586, "64": 31629, "##rre": 11593, "coordinate": 5827, "willie": 1615, "1909": 2734, "##u": 76350, "young": 63806, "eden": 1553, "1915": 3106, "##vin": 5252, "sidney": 1060, "##av": 8835, "1925": 2975, "##ret": 7938, "cha": 23849, "honeymoon": 1202, "##ois": 2566, "ever": 70139, "claimed": 11115, "bride": 4709, "postmaster": 518, "italy": 19691, "compiled": 6926, "ended": 16021, "statement": 33745, "activities": 47175, "board": 53030, "accompanying": 2822, "position": 67566, "december": 53159, "commission": 19774, "median": 48485, "##8": 124202, "##7": 125045, "roughly": 27604, "foot": 76085, "german": 38978, "renamed": 4578, "built": 57955, "received": 45702, "immigrant": 3237, "railroad": 7844, "conway": 1055, "22": 68381, "1956": 4615, "1962": 6142, "august": 60256, "along": 113702, "college": 69405, "interstate": 6695, "460": 3432, "rec": 65034, "incorporated": 13021, "##lassified": 433, "highway": 15959, "rain": 31287, "southeast": 14613, "roadway": 1875, "rivers": 12931, "believe": 40054, "said": 115281, "underwater": 3540, "morning": 36798, "residents": 33828, "creeping": 1081, "airline": 10935, "flooding": 3875, "sides": 32880, "tuesday": 22000, "worst": 12935, "night": 75625, "throughout": 71744, "far": 80548, "bracing": 574, "imp": 32946, "officials": 11587, "talks": 5792, "monday": 29591, "meg": 2720, "##ris": 7405, "##ass": 5908, "rouge": 2063, "statistical": 14638, "metropolitan": 15616, "227": 2408, "401": 7246, "inhabitants": 4931, "housing": 21769, "taxes": 41341, "212": 4515, "07": 20690, "lists": 23856, "paid": 71026, "offenders": 9967, "collected": 25174, "canadian": 19267, "stations": 16635, "6": 378847, "french": 55229, "26": 56477, "ca": 64847, "##tries": 5601, "##ces": 22959, "latest": 45039, "##jun": 8184, "tv": 62018, "radio": 40967, "italian": 24144, "newspapers": 9233, "monks": 821, "high": 310347, "##kia": 1339, "700": 23820, "mound": 2166, "m": 154482, "300": 55788, "##works": 3590, "mounds": 934, "metres": 7931, "illinois": 22100, "feet": 102683, "collins": 6432, "mississippi": 12870, "scale": 36213, "##ho": 28696, "earth": 87293, "potter": 4567, "allowed": 29099, "qualities": 7581, "durable": 9031, "shell": 19810, "linear": 12010, "wider": 7689, "clay": 10659, "habitat": 10502, "enhance": 14813, "adaptation": 5206, "innovation": 6637, "specific": 127860, "tempered": 1307, "##ums": 3839, "zones": 11919, "flood": 7327, "thus": 48096, "##ain": 8723, "environmentally": 1928, "##pl": 51509, "##ssel": 2707, "crushed": 4661, "pottery": 1799, "##ibe": 6476, "dump": 4538, "##iling": 2816, "?": 316079, "baskets": 1281, "gathering": 5182, "dawn": 5525, "clearing": 5610, "soil": 41082, "imagine": 10450, "tam": 9797, "carry": 40610, "dusk": 1489, "dirt": 10156, "ain": 13860, "solid": 38944, "erected": 1490, "valley": 27467, "ohio": 26021, "##dian": 5840, "length": 78796, "peoples": 6080, "tribes": 5481, "indigenous": 5110, "constructed": 9780, "native": 38488, "arrived": 9503, "using": 258176, "spanish": 31642, "169": 2980, "154": 4181, "arkansas": 8685, "them": 309256, "##1": 120540, "cad": 7175, "visited": 6747, "##2": 159280, "explorers": 1747, "concentrations": 7812, "lakes": 14106, "appalachian": 2332, "archaeology": 914, "valleys": 2811, "gulf": 11898, "builders": 3193, "prehistoric": 2131, "practice": 56374, "burying": 527, "ago": 89478, "indians": 6939, "huge": 25869, "think": 102336, "field": 73932, "geometric": 3109, "packed": 9485, "platforms": 4568, "football": 22154, "cover": 69738, "patterns": 15795, "steep": 7565, "fields": 20482, "bart": 3791, "anchor": 6694, "note": 90740, "east": 67445, "##oki": 3290, "##owa": 2067, "intact": 4260, "indian": 28545, "transitional": 2126, "soto": 643, "historic": 17033, "##ow": 18264, "list": 155876, "##bu": 40972, "recognized": 22731, "southern": 45636, "trail": 11614, "woodland": 1968, "interior": 17249, "appears": 39124, "##ilde": 1929, "ko": 33766, "northwest": 14956, "chieftain": 304, "lodge": 4262, "semi": 21018, "mort": 2785, "##unda": 5108, "european": 31910, "##nel": 5473, "dance": 14227, "residence": 10264, "rot": 11922, "char": 8290, "##uary": 1506, "platform": 16397, "documented": 6124, "temple": 6596, "games": 40665, "happy": 21468, "engage": 6893, "characters": 26756, "killing": 9585, "ct": 22779, "sort": 19443, "##game": 1601, "playing": 26317, "video": 76748, "gaming": 5981, "zero": 21137, "broadly": 3861, "violent": 7220, "balanced": 10243, "too": 134309, "yourself": 43601, "contrast": 19509, "interest": 58806, "2013": 77085, "love": 72911, "##ier": 23769, "feelings": 11532, "enjoyment": 2092, "better": 116984, "firing": 3062, "##obe": 2500, "game": 83795, "mc": 26159, "09": 19733, "causing": 40624, "satisfied": 4666, "positive": 42780, "depression": 26551, "fatigue": 18938, "##go": 32228, "influences": 6318, "clinical": 36917, "depressed": 3240, "anger": 4550, "trial": 20152, "sample": 30002, "controlled": 21846, "random": 13548, "manage": 26702, "##bei": 1761, "parents": 43380, "##vent": 7961, "players": 28637, "opportunities": 18889, "distress": 5184, "psychological": 11641, "potentially": 14687, "clear": 62853, "mental": 30014, "##power": 4796, "importantly": 4131, "thoughtfully": 233, "em": 53279, "biological": 18472, "stuart": 1997, "##ates": 11204, "trivial": 1147, "makes": 104149, "unconscious": 3471, "##vi": 25261, "gets": 43685, "challenges": 10049, "themselves": 32171, "author": 34120, "dilemma": 1361, "sleep": 37119, "play": 83316, "essential": 51597, "drive": 61965, "shapes": 11465, "critical": 28012, "word": 126295, "opens": 13773, "imagination": 3801, "naturally": 28374, "brain": 80256, "tough": 16910, "##gor": 6746, "avery": 1353, "hen": 24828, "soul": 11267, "reward": 7855, "karma": 1108, "sake": 3132, "brighter": 2027, "friend": 33209, "akin": 4358, "waiter": 898, "##ening": 12454, "persona": 9333, "needs": 100442, "competence": 1828, "consequence": 4082, "##ness": 98564, "met": 34528, "rochester": 2488, "autonomy": 1254, "york": 90679, "won": 70756, "sure": 121824, "anyone": 37123, "happiness": 5212, "##ising": 4174, "downs": 5358, "ignore": 4120, "try": 87325, "##act": 15550, "net": 57507, "##tracted": 1568, "appear": 53667, "sub": 95029, "grant": 17172, "suggestions": 6705, "says": 73352, "attendance": 5492, "breakdown": 16070, "award": 23966, "considering": 14781, "students": 84206, "options": 65458, "pay": 174757, "help": 266322, "loan": 34117, "alone": 32903, "student": 47761, "loans": 15840, "suited": 5543, "campus": 14788, "scheduling": 3355, "admissions": 5247, "placement": 8498, "classes": 22900, "characteristics": 28366, "minors": 2558, "online": 109849, "majors": 3422, "held": 48513, "faculty": 6900, "academics": 1484, "outline": 6137, "referred": 58950, "offer": 76296, "letters": 22960, "listed": 60219, "calculate": 33972, "tax": 113187, "incentives": 2760, "investments": 6472, "##hee": 18638, "names": 65943, "free": 202969, "worth": 54302, "child": 96188, "kids": 32812, "earn": 50514, "basics": 10124, "##while": 1858, "awards": 15026, "##cial": 7460, "indicated": 14641, "budget": 28276, "##nan": 4107, "particular": 65629, "##\u00ac": 15408, "##c": 204875, "##ii": 11196, "##ll": 31524, "numbers": 70510, "bud": 6413, "educational": 17980, "expected": 39356, "##fc": 5562, "##fs": 10219, "funds": 22388, "contribution": 12000, "distribute": 5653, "application": 75236, "derived": 38544, "absorb": 20073, "reported": 47490, "federal": 88395, "meal": 25630, "18": 118037, "regular": 63121, "room": 69319, "calculating": 7483, "assist": 17033, "gettysburg": 1214, "required": 107613, "approved": 33327, "requirements": 61470, "comparison": 19333, "researching": 3167, "attend": 12362, "consider": 49132, "distance": 54825, "finnish": 1607, "fragile": 2583, "##tur": 2760, "melt": 10743, "barren": 956, "plain": 15541, "northern": 43411, "arctic": 6201, "asia": 26175, "tun": 3205, "shrinking": 1317, "hemisphere": 9145, "comes": 103696, "frozen": 17183, "scandinavia": 1397, "alpine": 2723, "siberia": 1412, "finland": 3111, "temperatures": 44478, "russia": 15156, "extremely": 30575, "landscapes": 2216, "sweden": 5707, "alaska": 16661, "greenland": 2193, "norway": 5579, "characterized": 26437, "locations": 37381, "##cation": 7875, "vegetation": 5140, "clearly": 16721, "antarctica": 3241, "low": 168017, "regions": 26025, "populated": 5205, "landscape": 11101, "central": 82987, "##stituting": 2316, "almost": 79259, "ib": 15987, "largely": 15060, "amidst": 696, "vast": 14267, "plains": 6615, "##eria": 3478, "sparsely": 811, "explains": 16325, "##land": 18635, "lands": 7823, "swamp": 2705, "##ga": 22628, "forests": 9250, "pole": 8751, "round": 43973, "tai": 3875, "##iferous": 2252, "owe": 13747, "andes": 2385, "mountain": 32133, "##ver": 31175, "himalayas": 1411, "siberian": 1641, "polar": 12005, "##\u00b0": 67875, "180": 18074, "60": 105866, "cap": 33853, "northeastern": 4684, "grow": 64442, "##chen": 3718, "##dge": 3032, "antarctic": 1792, "li": 33321, "se": 58995, "grasses": 4114, "trees": 31114, "scattered": 3669, "shrubs": 4816, "dwarf": 5148, "moss": 4931, "saturday": 22044, "item": 32363, "99": 39605, "delivery": 27168, "shipping": 18616, "eligible": 30214, "minimum": 64041, "biggest": 29326, "##ks": 15043, "items": 48477, "amazon": 21587, "same": 264912, "provides": 98325, "##gi": 17584, "exchange": 34994, "##oma": 22222, "am": 133776, "email": 52002, "##ized": 47507, "dona": 63644, "##vers": 10586, "personal": 78399, "mom": 13640, "wipe": 7304, "account": 100199, "discount": 22095, "##pers": 9839, "share": 75269, "celebrated": 7882, "rival": 4439, "deals": 16209, "20th": 16390, "54": 30897, "anniversary": 8832, "shopping": 17634, "ed": 42565, "event": 49242, "black": 98919, "exclusive": 15340, "jun": 7592, "friday": 28712, "nolan": 1014, "##z": 54612, "existing": 33500, "caroline": 1818, "paying": 28376, "spending": 16107, "114": 5309, "without": 168820, "least": 139900, "purchase": 53307, "minutes": 142574, "hosting": 4948, "becoming": 27266, "midnight": 5340, "35": 64657, "gives": 51920, "noon": 4807, "##scribe": 15745, "media": 46806, "overnight": 11859, "bonus": 13041, "subscribers": 3705, "added": 61773, "announced": 30216, "shows": 75523, "streaming": 7723, "movies": 18281, "customers": 42950, "fee": 54694, "regularly": 17870, "show": 144803, "##ran": 8532, "emmy": 3249, "celebrate": 8437, "67": 23439, "##spar": 4620, "winning": 18113, "priced": 7933, "##ime": 8621, "deal": 35876, "transparent": 5406, "physics": 10429, "hacker": 1768, "upgrade": 9961, "##watch": 5139, "months": 137312, "fights": 2984, "half": 96673, "plus": 59754, "market": 83882, "quantum": 2747, "six": 87241, "describe": 38447, "##ub": 18316, "odor": 13071, "##ility": 5165, "melting": 6691, "boiling": 12437, "sol": 15484, "freeze": 20868, "boil": 17632, "properties": 43487, "probably": 67724, "temperature": 121930, "physical": 77808, "identify": 34506, "electric": 34160, "momentum": 2742, "particle": 6292, "wave": 18836, "photon": 2383, "propagation": 1645, "vector": 5442, "determines": 12439, "representation": 8915, "charge": 60439, "wavelength": 4615, "##ization": 34412, "stable": 15481, "##tra": 48249, "##sibility": 694, "evidence": 34903, "rules": 43072, "##mis": 9780, "opinion": 15236, "courtroom": 1176, "##imo": 5442, "kinds": 24217, "relate": 5885, "hears": 1650, "demons": 1661, "lay": 19719, "documentary": 3726, "apply": 78105, "##ay": 14512, "##nia": 20467, "electromagnetic": 5910, "transfer": 45374, "force": 55882, "derives": 5817, "radiation": 18754, "decide": 24015, "##pit": 14363, "heat": 99656, "demonstrate": 6801, "examine": 10244, "occurred": 15756, "##tale": 1926, "conserved": 861, "observations": 6242, "evolution": 11127, "virtual": 12027, "via": 54159, "static": 7474, "elementary": 8623, "carrier": 14041, "_": 49315, "arriving": 3489, "initiate": 4904, "scene": 13849, "upon": 63223, "sequence": 16585, "\\": 14480, "}": 9934, "emi": 8882, "measured": 29476, "^": 7256, "##tting": 3802, "##tyle": 3222, "frame": 21192, "{": 10840, "displays": 11170, "familiar": 18790, "law": 113500, "presented": 18032, "bar": 47173, "course": 88913, "accordingly": 4728, "preparation": 17692, "impossible": 10671, "##rade": 2476, "villa": 2599, "symbol": 32889, "rays": 12017, "greek": 41075, "discovered": 22649, "1903": 2679, "denoted": 2391, "ernest": 1585, "paul": 20567, "1914": 4335, "gamma": 4246, "edward": 8320, "rutherford": 1251, "##\u00b3": 21646, "train": 19662, "##ino": 17577, "experiences": 16384, "vary": 74849, "hall": 25063, "altering": 2241, "hawaiian": 5390, "baby": 86423, "user": 52951, "slow": 35683, "wood": 42778, "##genic": 7442, "mystical": 994, "effects": 89311, "journeys": 1084, "##rose": 2705, "wreck": 1666, "er": 49958, "seeds": 28584, "hot": 86252, "stiff": 13443, "##oton": 5781, "tram": 3440, "ultra": 10704, "##ado": 5894, "ser": 17419, "shivering": 583, "confusion": 11670, "##per": 37165, "dem": 5847, "##ero": 21685, "anxiety": 23026, "vine": 4192, "psychedelic": 739, "white": 134424, "contain": 64909, "donate": 4995, "125": 16692, "climbing": 4632, "pods": 2672, "trumpet": 1457, "furry": 1241, "flowers": 23309, "perennial": 6272, "seed": 24109, "molecule": 21798, "glass": 37499, "ornamental": 3128, "florida": 47756, "grows": 17295, "despite": 24605, "glory": 3401, "hawaii": 13999, "california": 78557, "concerns": 12423, "sweating": 6020, "relief": 19208, "accuracy": 10292, "2007": 36811, "unsigned": 546, "apr": 23187, "referencing": 1075, "comment": 14920, "enough": 90116, "talk": 38723, "regardless": 21074, "##ece": 2645, "effect": 72761, "##ding": 21436, "utc": 5949, "198": 1907, "##aus": 5336, "##nine": 1440, "##ch": 68211, "citation": 7124, "needed": 67629, "amounts": 40257, "potent": 5775, "untitled": 382, "articles": 21460, "##gli": 4206, "species": 76508, "st": 133880, "##gible": 1785, "journal": 14735, "tran": 4217, "##ene": 10203, "##rdi": 8158, "##yl": 35412, "par": 31752, "##cy": 32777, "##mine": 15148, "##lz": 1415, "blurred": 3546, "##ated": 42377, "nausea": 22439, "fast": 60643, "vomiting": 20095, "##balls": 2340, "unsafe": 2513, "##inations": 2558, "dil": 20313, "##zziness": 11324, "movement": 52934, "##yse": 3718, "content": 60887, "##mer": 32260, "##rg": 9331, "##oid": 27868, "iso": 16991, "##gin": 8892, "##kal": 4537, "maynard": 484, "political": 35223, "economics": 6793, "economist": 1642, "modern": 54066, "ideas": 24731, "keynes": 515, "baron": 1501, "21": 77138, "cb": 6585, "1st": 16513, "1883": 1898, "forces": 26940, "argued": 3288, "solve": 11868, "##ians": 8754, "advocate": 4075, "wait": 31215, "employment": 29194, "adjusting": 3620, "fix": 19374, "sectors": 3803, "##wat": 2068, "papa": 3768, "im": 57536, "ja": 18390, "integrating": 1453, "##han": 10632, "chris": 10563, "##org": 10091, "economists": 1638, "##iss": 7509, "sar": 11441, "##tify": 2223, "deputy": 3798, "government": 100713, "foreign": 30714, "sum": 29344, "buys": 2491, "sells": 8072, "inadequate": 4011, "goods": 27134, "prolonged": 7420, "unemployment": 8456, "demand": 24392, "periods": 25691, "exports": 2989, "purchases": 9522, "consumption": 18369, "##ee": 26337, "##ba": 38326, "ek": 5742, "changed": 34601, "whose": 37760, "##nz": 3622, "macro": 12634, "##economic": 1862, "fundamentally": 1425, "##\u00aa": 18874, "spearheaded": 272, "flexible": 15041, "revolution": 15029, "box": 66634, "wanted": 23239, "prevailing": 2493, "idea": 53269, "markets": 15258, "thinking": 23364, "everyone": 39419, "job": 111280, "demands": 5784, "overturned": 589, "younger": 19640, "florence": 3593, "successful": 28934, "road": 51156, "lecturer": 974, "geoffrey": 742, "lover": 3687, "cambridge": 6569, "##phile": 947, "1887": 1922, "england": 36277, "neville": 408, "reformer": 884, "ada": 8519, "surgeon": 11194, "melville": 413, "prevented": 3257, "slump": 871, "subsequently": 5212, "activist": 2703, "influencing": 1582, "##ey": 19436, "performance": 54697, "refer": 46217, "optimal": 8991, "##nesian": 1697, "intervention": 7317, "aggregate": 6572, "ak": 13712, "stabilization": 1145, "##46": 4879, "famous": 42502, "1936": 3777, "regarded": 9106, "theories": 7946, "published": 42596, "founder": 12928, "expenditures": 2814, "inflation": 8081, "definition": 171155, "1930s": 4539, "understand": 54836, "advocated": 993, "pull": 25888, "stimulate": 11240, "developed": 54044, "global": 38199, "##walk": 2483, "ledge": 791, "##ling": 32641, "stories": 17125, "116": 5122, "edge": 28650, "2011": 58465, "walk": 30517, "tower": 10486, "356": 1535, "above": 132687, "pod": 4605, "receptors": 9061, "81": 21948, "antenna": 2879, "33": 31546, "spare": 3946, "toronto": 6645, "reception": 4138, "communications": 12082, "enjoy": 37309, "inches": 64549, "microwave": 9506, "solved": 3150, "##3": 124365, "338": 1641, "swiftly": 650, "guinness": 3143, "record": 64319, "adventure": 9782, "quite": 48625, "times": 146698, "167": 3082, "97": 20050, "grande": 4389, "seconds": 29028, "prem": 4707, "tour": 20288, "premiere": 7350, "les": 8022, "111": 6589, "##\u00a8": 10099, "lifetime": 14658, "##eux": 292, "##user": 1493, "ap": 50229, "wedding": 17882, "sur": 11067, "hosts": 7136, "##ut": 29193, "##po": 25781, "106": 7242, "##ouse": 2148, "feb": 13962, "reports": 38049, "cbc": 2428, "harrington": 477, "watch": 44749, "videos": 20218, "opened": 25088, "40": 118540, "1973": 7948, "1976": 7433, "breath": 21383, "##taking": 2788, "visit": 65589, "landmark": 4211, "defining": 7350, "must": 215857, "recognizable": 3057, "architectural": 4501, "wonder": 12264, "internationally": 4434, "entertainment": 18304, "renowned": 5318, "engineering": 22472, "skyline": 1305, "triumph": 1920, "visiting": 11247, "##ft": 25874, "icon": 18530, "dining": 9431, "massive": 14408, "pushed": 5586, "defined": 63645, "outsiders": 803, "structure": 64969, "odd": 7216, "lo": 41523, "dominated": 4885, "reference": 37687, "##adi": 4665, "rep": 36125, "##ere": 13120, "grand": 25424, "##nu": 15113, "bien": 713, "read": 106676, "dans": 808, "##el": 49961, "330": 5581, "lake": 41814, "delivers": 8157, "latino": 3458, "race": 26727, "tx": 16605, "gender": 17875, "texas": 56000, "hispanic": 6057, "ac": 95648, "survey": 26063, "voter": 4629, "files": 40229, "origin": 63241, "##view": 8726, "smallest": 13347, "charts": 10694, "places": 45612, "4th": 10511, "recent": 55072, "bureau": 29411, "marriage": 20638, "3d": 8570, "status": 45013, "proportion": 8929, "widowed": 472, "89": 18865, "percentage": 35757, "table": 69032, "segment": 12183, "males": 16547, "comprise": 4504, "47": 30641, "displayed": 14348, "females": 16496, "reveals": 7003, "compared": 49890, "2nd": 14103, "82": 22002, "29": 49531, "husband": 20506, "occupied": 6516, "male": 45418, "199": 3303, "75": 61616, "householder": 292, "chi": 23828, "##wt": 1671, "authority": 24036, "port": 31484, "pang": 1448, "##tta": 6424, "inland": 4430, "cp": 17333, "##bn": 2802, "bangladesh": 2479, "container": 19134, "##ao": 8878, "##gong": 431, "jointly": 3560, "waterways": 1244, "imported": 4582, "opening": 33133, "horizon": 4209, "exported": 1971, "agencies": 21008, "currently": 63275, "ministry": 4165, "operating": 35825, "alliance": 6279, "launching": 2719, "summit": 6322, "ministerial": 273, "inter": 42380, "yet": 52970, "32": 42244, "availability": 11656, "##ome": 22893, "operation": 26233, "ships": 10513, "india": 34293, "reached": 21667, "vessel": 13103, "##nar": 4391, "coastal": 10162, "sho": 5018, "containers": 8079, "pa": 41522, "##ganj": 74, "cargo": 5956, "##tori": 2843, "agreement": 27701, "started": 58092, "signed": 24575, "##rani": 1630, "##j": 34786, "dhaka": 257, "##gon": 15747, "reach": 49388, "highlights": 7779, "arrives": 4118, "depart": 2338, "sea": 70085, "##port": 12863, "capital": 48750, "sits": 9160, "kilometers": 15264, "spoken": 14634, "official": 54278, "hindus": 1133, "bay": 30017, "147": 4042, "though": 100320, "##57": 3677, "muslim": 4873, "bengali": 647, "bengal": 1880, "kilometer": 2264, "import": 11045, "charges": 25032, "affordable": 16044, "shipment": 2965, "authorities": 6851, "ensuring": 6127, "mandatory": 6307, "imports": 2666, "surrounded": 10810, "borders": 8065, "myanmar": 1193, "8th": 5774, "1971": 8143, "independence": 14708, "west": 85348, "pakistan": 5630, "160": 17147, "liberation": 1518, "populous": 5655, "join": 26795, "fellow": 7874, "titans": 1266, "2012": 68741, "association": 44025, "hello": 8382, "leader": 25800, "skills": 37756, "sg": 3047, "engaged": 8038, "joining": 7746, "professional": 68424, "fees": 45636, "conservative": 6225, "visits": 7953, "lobby": 2601, "connections": 10520, "contacts": 9822, "legislators": 1067, "lc": 4097, "questions": 61385, "standing": 19821, "lori": 1611, "##ann": 5640, "gp": 12869, "applicant": 6370, "complete": 98284, "return": 70666, "87": 20367, "applications": 40069, "incomplete": 5119, "cannon": 2097, "##co": 85164, "850": 6084, "events": 46978, "##iti": 8524, "prior": 48632, "##zing": 22878, "decisions": 16914, "voice": 28697, "representing": 8998, "involvement": 5447, "improve": 42325, "org": 22515, "resume": 7661, "among": 81749, "personality": 17175, "ask": 55734, "writer": 17093, "interviewed": 1736, "representative": 15050, "abe": 7655, "interview": 14983, "pursue": 6969, "incorporates": 2561, "answer": 148691, "company": 169835, "description": 41244, "##com": 24876, "implement": 6896, "programming": 11709, "picture": 31258, "closer": 16583, "friendships": 637, "chapter": 22938, "marketing": 21244, "prefer": 22858, "owned": 29258, "##au": 15385, "berth": 762, "serve": 39552, "docks": 973, "waterfront": 2331, "passengers": 9415, "cruise": 9813, "ship": 24293, "panama": 3950, "800": 49056, "atm": 5559, "rainfall": 12770, "123": 5919, "##iest": 9030, "branch": 30630, "93": 17368, "borough": 4857, "wells": 7047, "ep": 54456, "snowfall": 3334, "ranges": 30328, "238": 2421, "234": 2511, "fargo": 3265, "##ward": 4597, "##ending": 2796, "airport": 36470, "alive": 10103, "##ie": 44198, "uss": 2791, "naval": 6173, "1100": 2333, "francisco": 14923, "battle": 23395, "mph": 17691, "##ada": 5288, "launched": 13132, "cl": 77654, "bow": 25453, "km": 48370, "##lc": 8587, "killed": 20308, "ahead": 18662, "men": 111362, "sunk": 1023, "kn": 6821, "five": 116461, "torpedoes": 151, "intended": 25750, "sinking": 2051, "hit": 42780, "68": 23301, "cruiser": 898, "gu": 19170, "struck": 5030, "her": 209683, "atlanta": 12450, "navy": 13801, "maintain": 36203, "##anal": 1274, "sullivan": 2250, "border": 22640, "##tine": 13935, "channel": 26414, "delaware": 6662, "##down": 9419, "##ade": 7696, "martinique": 305, "escape": 10208, "prevent": 69297, "shake": 9124, "patrol": 3312, "assumed": 6863, "blockade": 865, "islands": 24620, "vichy": 131, "##pe": 35056, "##lou": 5470, "hurried": 195, "292": 1752, "sunday": 26229, "internet": 53958, "thursday": 21717, "access": 89478, "wi": 55478, "marine": 19159, "helicopter": 2200, "hills": 12960, "mansion": 2550, "stands": 26551, "pilot": 10530, "te": 47473, "49th": 496, "stairway": 726, "1959": 5932, "exciting": 9494, "hillside": 1014, "glacier": 2415, "##ms": 32420, "950": 4129, "landings": 764, "overlooking": 1790, "governor": 12194, "helicopters": 865, "handling": 10688, "floating": 5775, "construct": 6812, "capable": 16979, "entering": 13659, "improvements": 6410, "ends": 27893, "standard": 111466, "greenwich": 2409, "eight": 41643, "daylight": 11937, "##ctors": 1644, "agreed": 12094, "contract": 42786, "contractors": 7706, "possibly": 19288, "normally": 46606, "hired": 8345, "originating": 5605, "##ctor": 6627, "specifies": 3800, "wants": 18659, "##b": 99644, "flats": 2043, "noun": 46142, "##bek": 821, "##rak": 2163, "##ken": 5519, "sa": 42024, "##rok": 957, "##ont": 10319, "block": 41434, "undertake": 1777, "##te": 134869, "employed": 16128, "assigned": 16807, "categories": 23913, "##rial": 7075, "target": 25101, "credible": 1192, "sites": 26118, "employer": 30002, "employee": 39775, "mathematical": 6624, "obligations": 5217, "functions": 44627, "contracts": 13545, "glen": 4482, "principal": 17757, "contractual": 1870, "junior": 7213, "jeffrey": 2336, "secondary": 22170, "doors": 12296, "insulation": 6473, "resource": 20786, "reputation": 8864, "provider": 34154, "fireplace": 3002, "supply": 43280, "commitment": 9672, "customer": 52950, "professionally": 3811, "oh": 23386, "hardware": 15558, "trained": 13172, "##work": 14410, "install": 41993, "windows": 72823, "##utable": 4008, "consolidated": 2440, "manufacturers": 13859, "marvin": 993, "integrity": 6575, "windsor": 2017, "##room": 4796, "brands": 16675, "brand": 46259, "fox": 14496, "##mo": 51174, "supplies": 18933, "##del": 13630, "experienced": 22471, "opportunity": 23366, "weave": 10931, "established": 44727, "providing": 37231, "friendly": 20010, "expert": 17558, "necessary": 55573, "dimensions": 11106, "selection": 25428, "custom": 30439, "aluminum": 15283, "vinyl": 8249, "window": 35274, "tools": 41956, "locally": 5749, "materials": 55178, "equipment": 41091, "oklahoma": 11851, "supplying": 2789, "serving": 44820, "wear": 43399, "producing": 22743, "##hold": 3884, "tear": 13164, "needing": 3413, "weather": 91705, "consumers": 16752, "takes": 89213, "initial": 32964, "galley": 270, "granite": 5936, "tile": 10344, "19": 68555, "kitchen": 20571, "fabrication": 1603, "choose": 84695, "inventory": 10411, "405": 2216, "##31": 6626, "74": 20708, "525": 2079, "stores": 31763, "lowest": 31466, "power": 123730, "samsung": 8769, "##lp": 11361, "appliances": 6069, "wolf": 7459, "##dor": 3846, "##ool": 5890, "##rma": 3317, "bosch": 776, "##hir": 4128, "sans": 1449, "birthday": 14353, "##tro": 45287, "henry": 14705, "kissing": 1727, "dar": 6024, "jockey": 1103, "proven": 11128, "angeles": 25844, "club": 28740, "frost": 9967, "david": 24165, "bis": 7963, "wilson": 8353, "nights": 9509, "writes": 4878, "lunch": 10849, "jill": 1638, "wasn": 13945, "hardly": 3989, "films": 13732, "natalie": 1224, "affairs": 9277, "worked": 30310, "bringing": 11629, "wagner": 1267, "1990": 14659, "married": 31548, "tales": 3151, "telling": 8482, "warren": 4983, "thinks": 5795, "beatty": 335, "kill": 21159, "books": 31550, "outside": 66962, "##ls": 54441, "admits": 1391, "story": 57119, "waited": 1727, "plotted": 993, "star": 73427, "lies": 19977, "gun": 13214, "##pu": 13100, "absolutely": 9809, "lightweight": 5386, "##old": 3829, "##rigue": 537, "piece": 42274, "##ered": 4441, "screen": 49588, "cosmopolitan": 1029, "alongside": 8162, "1960s": 9075, "incredible": 7508, "specimens": 3038, "spy": 4106, "candy": 7473, "hollywood": 12655, "handsome": 2208, "appeared": 18479, "comedy": 11193, "spirited": 879, "win": 28505, "##arable": 1040, "ins": 60566, "walter": 4207, "bob": 12911, "columnist": 1074, "movie": 37621, "##chel": 1505, "evans": 3590, "appearances": 3865, "##ep": 20404, "merely": 6513, "fooled": 693, "1966": 6333, "1982": 8375, "live": 115061, "batman": 3433, "valentine": 2319, "film": 56257, "officially": 17862, "actress": 20578, "diamonds": 3562, "bond": 22885, "mart": 4110, "cavalier": 545, "##ignant": 585, "##len": 14809, "adventurer": 767, "dennis": 2632, "captain": 8859, "hearts": 4756, "landed": 4432, "dave": 4843, "welcomed": 2006, "##lli": 9329, "po": 46365, "##dou": 2754, "goodbye": 2080, "##rn": 11447, "blaze": 1791, "date": 105560, "flew": 2200, "tells": 19072, "wool": 7200, "trying": 36866, "pearl": 6785, "gift": 17394, "beside": 3393, "stock": 46610, "lance": 2714, "neal": 1548, "buttons": 5881, "##worth": 5608, "necklace": 2049, "gag": 1652, "diamond": 11039, "joy": 8416, "supposed": 10209, "everybody": 4972, "occasion": 5750, "grief": 2240, "couple": 38825, "weekend": 16261, "steady": 7629, "tears": 7493, "longtime": 2756, "certainly": 15045, "shock": 12113, "j": 45249, "boo": 4566, "drowning": 1220, "##oin": 2423, "death": 73948, "ranch": 8721, "html": 13246, "##cha": 22769, "##eth": 18535, "##\u00be": 6553, "##00": 22205, "ut": 39658, "##ad": 27213, "220": 10207, "##frame": 2955, "##rse": 2550, "##bri": 16631, "##set": 5510, "##dt": 2773, "##cel": 7532, "##ctable": 1770, "##lle": 6302, "187": 2115, "text": 52146, "frames": 5767, "##pac": 4602, "##f": 110990, "remarkable": 4588, "##bor": 4382, "legislative": 8440, "##wi": 12676, "##27": 6055, "https": 12900, "221": 2825, "partially": 8914, "everywhere": 8264, "cattle": 8359, "holding": 20510, "graz": 1312, "farmers": 8283, "bowl": 30809, "let": 99856, "maximum": 60092, "dust": 13436, "blow": 10755, "cut": 76939, "loosen": 4587, "farms": 6017, "twentieth": 3226, "anywhere": 42340, "disasters": 2124, "environmental": 22734, "strip": 11962, "dumping": 1030, "333": 2937, "mining": 7313, "urban": 17191, "##wl": 4326, "farming": 6074, "toxic": 16814, "1930": 4613, "debts": 4543, "proportions": 3184, "##12": 14641, "posted": 29527, "lack": 31560, "referring": 11437, "devastation": 629, "techniques": 19251, "agriculture": 11939, "assuming": 10148, "dry": 86700, "measures": 27842, "applying": 18612, "##orestation": 1143, "railway": 4938, "def": 32622, "##pop": 3613, "##ulation": 7901, "unfair": 2621, "freely": 5515, "lesson": 13333, "jury": 6678, "select": 84191, "declaration": 8539, "trials": 6836, "##vances": 1034, "03": 22222, "wind": 33334, "erosion": 5458, "##21": 9243, "methods": 35930, "failure": 30514, "##ote": 13274, "contributing": 4954, "ecological": 3024, "disaster": 6041, "##eg": 11964, "mo": 69274, "mp": 12777, "##load": 15707, "##mb": 26924, "rm": 4510, "mb": 10373, "600": 33082, "##v": 83249, "av": 23649, "jp": 7055, "##gp": 2694, "menu": 42190, "phrases": 7767, "ones": 33511, "speak": 19503, "words": 85221, "plate": 33159, "ta": 34722, "surprises": 1502, "##hiti": 1251, "further": 49927, "\u00ab": 10751, "##va": 23428, "dialect": 3318, "closely": 18769, "##ap": 37056, "##hi": 23665, "ki": 29621, "mit": 25676, "##ro": 51421, "ai": 34548, "ma": 38851, "##ani": 24840, "##ka": 26270, "##uke": 1869, "##hang": 2462, "mani": 5547, "##onga": 2093, "##uto": 4452, "##tu": 17983, "dialects": 2019, "classify": 4440, "##rot": 11067, "ng": 8336, "maori": 1059, "ra": 42954, "tonga": 649, "##iu": 1969, "manga": 5652, "##ki": 28081, "experiencing": 9650, ">": 39166, "<": 17845, "photo": 49748, "embarrassing": 1555, "easier": 31408, "remember": 41868, "trip": 36705, "although": 114439, "languages": 22803, "schools": 40428, "islanders": 613, "fly": 20357, "memo": 3619, "fun": 37759, "impression": 5740, "##riz": 7709, "##nt": 66368, "deposition": 3379, "cool": 45701, "warm": 54038, "conde": 7551, "surrounding": 24539, "absorption": 11489, "release": 52458, "compressed": 5161, "plans": 38652, "molecular": 12212, "align": 4378, "middle": 70441, "chapters": 3319, "chemistry": 14648, "teaching": 15258, "concepts": 12336, "standards": 31794, "inquiry": 3545, "##lim": 6512, "##monium": 2252, "heating": 17236, "hydrogen": 24287, "##ciation": 5322, "chloride": 8662, "##sso": 6824, "ammonia": 5278, "##oth": 24560, "occurs": 80187, "diagram": 9574, "triple": 9986, "pressures": 3730, "transition": 12297, "intermediate": 7941, "passing": 15204, "eva": 13063, "proportional": 4824, "##por": 14181, "gained": 10184, "matters": 11190, "inverse": 3264, "ice": 41054, "bypass": 5163, "invisible": 3433, "freezing": 9939, "snow": 25612, "vapor": 11148, "reverse": 14076, "crystals": 7863, "changing": 26378, "explain": 25147, "introduce": 7148, "attractions": 9357, "speed": 60042, "forming": 18360, "overcome": 5036, "points": 53984, "regards": 4053, "respectively": 15984, "hai": 3012, "gone": 17999, "##da": 46578, "##front": 6762, "##zi": 10084, "entered": 17399, "silhouette": 1319, "##16": 8707, "##grade": 4648, "exactly": 33891, "antonio": 6455, "ops": 1754, "message": 33713, "link": 53301, "##ffa": 2170, "rama": 2414, "id": 45462, "enter": 70289, "##fo": 23885, "##ifiers": 3076, "frederick": 3652, "convenient": 17063, "outlets": 3983, "plaza": 3688, "##otto": 767, "##40": 9931, "301": 2806, "western": 45921, "battlefield": 1935, "217": 2346, "ferry": 4337, "historical": 27954, "exit": 11273, "anti": 87954, "crystal": 13162, "##pass": 4773, "##gers": 2446, "79": 22303, "harper": 2725, "1718": 269, "2500": 4119, "nearby": 17656, "fort": 21268, "hotel": 33449, "cavern": 1503, "mall": 10439, "620": 3172, "rated": 15934, "choosing": 14415, "procedure": 40457, "85": 33316, "stars": 30566, "address": 66729, "sr": 9448, "saved": 10250, "informed": 7219, "hank": 3426, "confirms": 2299, "marco": 1993, "phone": 90234, "insights": 4794, "lopez": 1650, "por": 13122, "np": 9629, "indicate": 27396, "af": 32676, "##ema": 13388, "ownership": 13168, "formats": 6783, "##vid": 5924, "##icia": 10845, "ou": 29371, "pdf": 17924, "157": 3445, "##ual": 13481, "guerra": 133, "element": 30787, "##36": 6751, "##zos": 1321, "identified": 20472, "mail": 54738, "##65": 5534, "##lda": 2294, "135": 8177, "##ops": 3936, "##list": 17619, "genealogical": 884, "databases": 3737, "editors": 3783, "genealogy": 3518, "contributed": 6021, "web": 78410, "surname": 17000, "golfer": 2654, "brooks": 2514, "golf": 15725, "route": 33650, "ranking": 7969, "chose": 7146, "pga": 2176, "eventually": 24053, "challenge": 13447, "##sta": 20484, "7th": 6486, "topographic": 1499, "burn": 25533, "stream": 19241, "originally": 39557, "saxon": 2593, "derivation": 2271, "anglo": 4297, "indexed": 1529, "##lty": 732, "##ff": 23001, "ancestors": 5510, "finding": 23746, "database": 28387, "##rne": 1714, "instances": 7329, "rn": 8361, "burns": 9860, "tested": 15907, "samples": 9352, "relatives": 5146, "testing": 35792, "companies": 61600, "gathered": 5445, "##test": 8182, "dna": 39561, "matches": 7727, "likewise": 3863, "##wee": 17950, "carved": 2876, "berger": 643, "knox": 1285, "daniel": 7392, "finale": 3728, "champion": 6675, "nike": 2805, "athlete": 5685, "russell": 4721, "69": 20917, "championship": 8404, "travelers": 6910, "270": 6662, "photographs": 4467, "documents": 30858, "original": 75482, "additional": 75661, "updated": 35111, "vintage": 4375, "ancestry": 6029, "raised": 23235, "newman": 1289, "played": 36981, "missed": 7839, "beach": 33599, "palm": 12585, "attended": 8316, "qualified": 16141, "edit": 36959, "cardinal": 2163, "##bre": 7552, "exceptions": 8645, "harmony": 3739, "explores": 3191, "brass": 5515, "instruments": 9898, "melody": 1964, "dynamics": 3609, "percussion": 1453, "rhythm": 7938, "calls": 21988, "winds": 13530, "tim": 8845, "strings": 4877, "3rd": 12584, "trio": 2782, "movements": 17110, "tonic": 2409, "scheme": 7264, "##dom": 6913, "classical": 10755, "schemes": 2572, "##ori": 31658, "##tana": 784, "dmitri": 286, "##aco": 9596, "jean": 5725, "##osed": 2039, "1949": 4833, "##chman": 470, "##50": 11034, "sergei": 230, "write": 37274, "alan": 6461, "##ius": 18797, "##ss": 18308, "composers": 1417, "nielsen": 1040, "##hane": 645, "carl": 5755, "approaches": 7797, "var": 12983, "##ginal": 12555, "continued": 16535, "whereas": 20907, "##kovich": 141, "##bel": 3996, "twenty": 14197, "fourth": 26069, "listener": 1239, "performances": 4021, "tempo": 2701, "lastly": 1674, "introduces": 3262, "clock": 12209, "ticking": 481, "plays": 24824, "sonata": 790, "modified": 13499, "concerto": 449, "sc": 93583, "##zo": 18244, "technically": 9389, "excluding": 5231, "18th": 9662, "##her": 29836, "symphonies": 284, "min": 23268, "instrumental": 2989, "written": 67916, "##kes": 5337, "grouped": 4273, "ensemble": 1631, "string": 17256, "cello": 836, "##\u00b5": 8549, "ee": 17075, "viola": 1272, "mixes": 3164, "##wind": 4424, "##tre": 23631, "bass": 8776, "double": 46379, "bowed": 512, "violin": 1525, "displaced": 2012, "schumann": 137, "symphonic": 215, "indeed": 14930, "##ish": 23045, "##hen": 16709, "1850": 2872, "liszt": 109, "poem": 6727, "discover": 20227, "soon": 39693, "beethoven": 817, "ll": 100825, "express": 23812, "genius": 3243, "notes": 24173, "joseph": 11045, "mozart": 774, "composition": 15272, "haydn": 282, "van": 17420, "amadeus": 235, "overwhelmingly": 739, "ludwig": 978, "wolfgang": 512, "believing": 1748, "convict": 992, "usage": 26868, "##roving": 1071, "knowledge": 40694, "expose": 3996, "##king": 8738, "el": 49408, "error": 19378, "brings": 14213, "meaning": 133371, "tilt": 3711, "##quest": 4174, "afro": 2008, "##gai": 928, "occurrence": 6066, "##ioned": 1088, "aa": 60399, "nas": 9159, "##eo": 9234, "##ura": 17461, "nk": 1372, "translation": 17638, "bible": 10875, "nj": 8442, "literal": 3656, "translated": 6030, "rs": 11225, "nl": 5119, "nr": 4795, "bb": 8179, "translators": 568, "##fort": 3056, "##nco": 1893, "carson": 2333, "problematic": 2466, "verb": 23489, "53": 27858, "sham": 6414, "attempting": 4664, "##iness": 12608, "##ance": 14511, "sin": 21986, "guilt": 2422, "persuade": 1423, "showing": 24827, "summons": 1610, "instance": 27113, "hospitality": 2594, "luke": 5367, "urge": 3933, "315": 2601, "##lore": 2448, "beg": 2383, "accept": 17518, "lou": 4942, "simply": 75172, "scripture": 1407, "spirit": 13944, "entry": 32675, "reading": 43757, "jesus": 8612, "celebration": 6633, "evangelist": 633, "conviction": 4456, "hate": 6255, "##actic": 3441, "refuse": 3320, "##ot": 44310, "207": 3267, "shame": 2981, "truth": 15878, "saying": 19023, "apart": 24305, "context": 21957, "##ations": 8258, "ab": 45068, "##ually": 3246, "##not": 6228, "verse": 4985, "guide": 67696, "adds": 13995, "##tin": 19075, "adoption": 7154, "holiness": 320, "##des": 13806, "pennsylvania": 22740, "115": 8657, "36": 48632, "asian": 12042, "caucasian": 1975, "tables": 30753, "boundary": 9525, "beneath": 10806, "peer": 6355, "estimates": 21273, "mi": 28993, "56": 28590, "237": 2107, "44": 34945, "98": 20881, "##ile": 29651, "qu": 26370, "rankings": 5894, "cdp": 4387, "##more": 7904, "312": 2259, "ranks": 11379, "##art": 15758, "milo": 633, "tray": 6854, "pl": 46920, "attached": 26475, "sl": 23022, "slid": 474, "step": 84055, "ski": 11214, "1920s": 4060, "cornell": 1719, "##rf": 4651, "loved": 12665, "##ske": 2686, "dimitri": 223, "dutch": 12700, "mic": 5796, "cafeteria": 1023, "strong": 57137, "device": 63243, "##boards": 2682, "##board": 13902, "pop": 30085, "christ": 8529, "##ywood": 2798, "##je": 4774, "##ened": 9562, "ithaca": 509, "sherman": 2292, "1965": 7853, "##vich": 725, "1929": 4201, "##ett": 4634, "alternate": 14312, "tie": 10825, "credited": 5776, "##rch": 5365, "exists": 18896, "reigns": 663, "jack": 18875, "invented": 12869, "horse": 22359, "strap": 2756, "lure": 1999, "##boarding": 1121, "toe": 11042, "binding": 10461, "enthusiast": 1241, "tips": 41544, "secure": 20975, "jake": 2249, "winters": 5154, "##bat": 7259, "##tick": 3025, "invitation": 2713, "carpenter": 3335, "alain": 291, "lee": 19770, "tom": 19300, "sims": 1096, "arcs": 1066, "went": 38317, "burton": 1559, "randy": 1653, "boots": 4732, "france": 30887, "october": 63396, "##ima": 11634, "believed": 20234, "riders": 3099, "jersey": 21290, "pursuing": 2837, "skate": 2466, "surfer": 1083, "frustrated": 1492, "1963": 7327, "passion": 6502, "sports": 36293, "images": 40472, "digital": 29262, "styles": 14230, "metal": 45865, "introducing": 4499, "expand": 14888, "edges": 10742, "advance": 18269, "designs": 12014, "sport": 17090, "1980": 11278, "woodstock": 768, "suicide": 6635, "tex": 2618, "prototype": 2204, "vermont": 4820, "technology": 53135, "base": 74657, "introduced": 28636, "appearing": 6898, "540": 3497, "48": 45389, "2008": 40247, "1986": 9723, "resorts": 5342, "glide": 1483, "stance": 1860, "transverse": 3517, "axis": 11768, "differentiated": 2006, "downhill": 1230, "stand": 37660, "users": 48921, "tip": 28003, "inline": 1150, "parallel": 13199, "width": 21112, "##ways": 2309, "linking": 3420, "looks": 36177, "whole": 75871, "possessed": 1689, "folks": 6161, "match": 25507, "##hell": 5445, "beauty": 19245, "lamar": 1513, "sensual": 744, "exception": 14222, "##fi": 56493, "talent": 7528, "accent": 5054, "cowan": 147, "exotic": 4696, "inventor": 6550, "haunting": 677, "##ering": 5735, "setup": 12015, "broadcasts": 1415, "broadcast": 8586, "##ifier": 8424, "packets": 2686, "clients": 18689, "##ert": 16193, "allows": 65273, "##wa": 13134, "##ah": 13835, "uhf": 531, "sh": 10578, "fae": 1188, "cm": 40533, "lan": 10062, "devices": 38245, "gig": 6104, "bands": 9332, "connect": 46767, "electronic": 24364, "wireless": 18798, "influence": 25100, "signal": 18184, "noise": 9620, "card": 80314, "##ware": 16138, "strength": 34609, "commercially": 5167, "1980s": 8550, "1991": 10948, "precursor": 3755, "1999": 16645, "military": 43616, "created": 73034, "dreadful": 455, "obsolete": 2595, "efficiently": 6245, "mega": 11374, "considered": 95933, "##bit": 20666, "version": 62905, "speeds": 11560, "protocol": 10264, "operate": 16397, "900": 18611, "mhz": 1391, "1985": 8798, "802": 2606, "spectrum": 12568, "ruling": 4951, "ghz": 1531, "cash": 41364, "vic": 3983, "designing": 4315, "nc": 24212, "luce": 878, "hayes": 1392, "##eu": 4211, "ieee": 1175, "netherlands": 6812, "corporation": 23920, "##we": 13434, "popularly": 2391, "protocols": 3508, "chairman": 6474, "option": 56990, "ethernet": 3860, "cable": 24817, "plug": 23101, "laptop": 13873, "computer": 90925, "##ged": 12295, "rendering": 2700, "##stein": 3044, "##sch": 4172, "repealed": 1138, "ridiculous": 2277, "##ger": 27078, "consisting": 16891, "##orn": 6063, "parliament": 6266, "lengthy": 2569, "##rks": 1272, "##meister": 226, "longest": 19023, "measure": 56522, "##ae": 18055, "##bic": 12899, "eu": 31286, "##lla": 19946, "vowels": 1276, "##ou": 13067, "fifty": 5639, "ti": 28271, "protein": 76749, "189": 2043, "pages": 29632, "humans": 41355, "span": 13422, "##ras": 11848, "##ex": 24431, "##book": 12922, "isn": 51057, "depends": 67085, "cited": 7174, "recorded": 31735, "##lth": 8183, "##uta": 9388, "##yla": 6841, "pro": 114191, "##iny": 737, "supposedly": 2765, "##ony": 7317, "##unce": 5657, "##min": 16008, "everyday": 14573, "aren": 17003, "dictionary": 49551, "conversation": 7755, "clarify": 3727, "coined": 4604, "##ono": 7966, "fr": 32387, "##ram": 19997, "##ros": 12832, "##lid": 7545, "porn": 1094, "##pia": 1918, "##ios": 6997, "##ano": 16074, "##if": 15723, "##ze": 37848, "##my": 16666, "##ult": 6088, "##ilis": 2095, "mummy": 580, "ama": 14167, "##pins": 806, "oxford": 6113, "##ico": 10296, "##ious": 21686, "45": 71379, "##copic": 2828, "danube": 689, "##\u00a4": 8233, "tends": 12119, "##schaft": 167, "##hr": 23695, "steamship": 242, "##ska": 1756, "extremes": 2611, "##ell": 7462, "becomes": 37886, "##chi": 13212, "##ges": 18196, "vocabulary": 6586, "classic": 25228, "##uda": 4273, "monitoring": 11192, "##nd": 24362, "##ung": 3288, "ri": 36312, "##ische": 288, "track": 32890, "keeping": 23056, "##fle": 6328, "##ese": 6516, "beef": 23916, "labeling": 2340, "##ben": 5396, "##chu": 5359, "##tz": 8464, "63": 23674, "##\u00bc": 17408, "##bert": 2239, "##sg": 2182, "##ke": 37216, "delegation": 1311, "##sau": 729, "254": 2472, "##ausen": 198, "##wei": 1840, "really": 89970, "##eb": 11684, "##tv": 4871, "##und": 22401, "##hun": 1970, "single": 123186, "germany": 27012, "ireland": 15767, "##code": 7201, "postal": 9581, "compound": 25301, "##ir": 15078, "synonym": 27199, "##man": 46760, "hey": 12946, "##ata": 8294, "swedish": 5315, "jon": 4802, "stockholm": 1159, "ia": 40065, "pretty": 33111, "sorting": 1766, "acc": 19985, "distinguishes": 1699, "##tem": 7794, "addresses": 11778, "hong": 4570, "kong": 5061, "##ross": 1066, "spot": 26913, "limits": 24414, "searching": 9339, "case": 113594, "exact": 26675, "clicked": 1169, "##num": 4158, "nu": 37551, "##meric": 6062, "digits": 7987, "alpha": 12315, "digit": 15217, "##eric": 6314, "prefix": 7991, "sending": 10304, "format": 38402, "continental": 12847, "commonly": 92528, "spaces": 10994, "pin": 30129, "pun": 11857, "##uation": 5313, "wallace": 2039, "scottish": 9334, "salmon": 12566, "shouldn": 8621, "scotland": 10195, "rom": 8652, "perspective": 10369, "influential": 5635, "identity": 15882, "leave": 53798, "suggestion": 3288, "considerable": 6315, "bruce": 5469, "view": 102972, "industries": 14097, "galleries": 1718, "##ous": 55862, "politics": 9426, "grandson": 2102, "charlie": 4316, "scots": 1611, "pretend": 1759, "bonnie": 1455, "james": 32366, "king": 44664, "roles": 16115, "poetry": 6203, "descendant": 1851, "1720": 495, "prince": 12002, "acting": 17733, "figures": 19620, "significant": 44047, "1788": 1218, "drama": 14808, "handful": 5218, "picked": 8289, "ol": 19469, "actresses": 2188, "edinburgh": 1775, "definite": 4388, "sean": 3545, "##bridge": 3970, "actors": 8681, "globe": 10318, "actor": 29775, "fountain": 2457, "conner": 725, "smith": 15509, "hume": 3337, "philosopher": 3211, "baxter": 755, "occupational": 8747, "##far": 7231, "baker": 6311, "##hs": 12194, "##rth": 8120, "stewart": 3714, "stevenson": 763, "kings": 7534, "royal": 15774, "queens": 3920, "##wick": 3085, "angus": 1384, "lasted": 5985, "##mith": 1555, "stephenson": 411, "armstrong": 2352, "stephen": 7781, "tar": 18571, "##pipe": 3359, "originated": 13266, "bag": 26872, "##lts": 2663, "46": 33286, "inventions": 2044, "bronze": 5611, "##tan": 14599, "elsewhere": 7786, "1996": 14398, "##th": 60758, "319": 1474, "##4th": 314, "wales": 8511, "boys": 20918, "stated": 15831, "2005": 27769, "moderately": 3814, "interests": 10242, "limited": 52773, "reserved": 11049, "executive": 27202, "powers": 17498, "self": 54133, "incumbent": 1452, "uk": 41400, "##nde": 3685, "cabinet": 8213, "dev": 5870, "represents": 26694, "##ful": 25214, "creative": 13303, "surprised": 6158, "dedicated": 17800, "apparently": 7564, "bit": 60790, "historically": 7909, "intelligent": 5021, "defender": 2427, "undergraduate": 12437, "votes": 32978, "residency": 6543, "##ologist": 7770, "forensic": 4288, "pathology": 4119, "fellowships": 479, "banking": 10458, "anatomical": 3788, "path": 27234, "252": 2729, "mgm": 1722, "##ologists": 4302, "ana": 28106, "279": 1643, "##tom": 11515, "phd": 4814, "##ologies": 2155, "##ological": 6173, "##sw": 8155, "##ses": 15410, "##gno": 22979, "250": 35154, "mechanisms": 6911, "mar": 25536, "graduate": 19633, "appropriate": 36886, "method": 64729, "assistant": 18996, "##ical": 14973, "annually": 20183, "assistants": 6283, "bonuses": 5562, "commonplace": 1101, "earning": 12049, "outlook": 14369, "salary": 89428, "salaries": 41597, "setting": 36389, "retention": 7281, "fully": 34977, "certified": 28224, "completion": 10813, "accredited": 8437, "##ies": 68334, "202": 7314, "pays": 17522, "predict": 10468, "technicians": 7262, "##cting": 5979, "prepare": 25640, "autopsy": 1012, "otherwise": 26926, "emerge": 4891, "2001": 19804, "2003": 23398, "crab": 5884, "##lings": 5481, "advice": 24260, "beforehand": 1373, "2002": 19206, "##grass": 3351, "hat": 18615, "shocked": 2123, "##rou": 10224, "applied": 39790, "herb": 13705, "lawn": 11177, "##icides": 4264, "owners": 23355, "##rmin": 7159, "2004": 23060, "##woods": 1199, "##icide": 4209, "begin": 62092, "dog": 55882, "bloom": 8223, "##lizer": 7985, "shortly": 8186, "weeds": 3483, "combined": 31368, "mid": 49160, "##ball": 8329, "shrub": 4406, "dan": 14217, "guidelines": 22240, "##ines": 16791, "puff": 4435, "ui": 5571, "scott": 13471, "nighttime": 2009, "##ions": 17098, "halt": 2374, "blooms": 4061, "flowering": 6762, "forsyth": 633, "weed": 6346, "##yr": 24987, "emergence": 2191, "##dim": 1341, "dimension": 4960, "killer": 7133, "##ali": 14544, "##routed": 770, "developing": 26776, "prevention": 17262, "##rgen": 531, "##eme": 5990, "rises": 10831, "60s": 2659, "pets": 11271, "dormant": 3053, "birds": 20569, "waiting": 14361, "treated": 30519, "product": 96290, "##ana": 14756, "starts": 35642, "nightmare": 1799, "awake": 4616, "safe": 58623, "lb": 15459, "replication": 5202, "##bling": 5275, "##otide": 8251, "##em": 26388, "pairs": 13025, "polymer": 9577, "identical": 11392, "##ase": 13041, "enzymes": 16741, "blocks": 15993, "ass": 15311, "create": 96878, "##cle": 25736, "strands": 5536, "adding": 30845, "rna": 12407, "strand": 6349, "separate": 42619, "joins": 4833, "enzyme": 16291, "proteins": 31713, "140": 15724, "hc": 12816, "##che": 20134, "##bio": 3568, "answered": 13315, "copying": 2610, "helix": 3229, "iii": 17661, "performs": 7482, "pol": 6246, "bonds": 18616, "continuous": 15460, "liga": 1695, "os": 63947, "assists": 3665, "fragments": 4079, "##se": 84789, "creating": 29494, "##odies": 1314, "template": 11425, "continuation": 2235, "fork": 9250, "initiation": 2679, "bases": 10004, "##lica": 12140, "breaks": 15705, "chains": 8981, "proof": 17753, "##ib": 23023, "copies": 12711, "th": 39350, "tian": 571, "union": 40197, "basically": 20802, "soviet": 7858, "##amen": 2661, "massacre": 1851, "existed": 5580, "hasn": 6669, "own": 148350, "ambassador": 2323, "jealous": 1050, "guards": 2693, "forward": 29522, "suffered": 6813, "sovereignty": 1840, "territory": 16093, "dignity": 2091, "ignoring": 1319, "beijing": 2575, "cal": 116693, "computing": 6848, "730": 2132, "nautical": 4428, "flies": 5441, "flight": 30127, "straight": 31283, "##cula": 30921, "crow": 3262, "flying": 13343, "bush": 12170, "neither": 11797, "enemy": 5905, "traffic": 22823, "diversion": 1279, "approximate": 7820, "google": 32691, "handle": 21399, "russian": 12245, "swim": 7799, "surprisingly": 5090, "nirvana": 561, "productive": 5249, "##see": 5197, "contention": 791, "cooperation": 3136, "fore": 15070, "engagement": 6247, "gamble": 1749, "liberal": 6445, "gambling": 2202, "directions": 26828, "driving": 38442, "knowing": 14605, "sudden": 16207, "shoulder": 19053, "cuff": 3534, "joint": 43426, "elbow": 6914, "symptoms": 164277, "##dia": 15234, "painful": 21536, "shooting": 9922, "arm": 30995, "occurring": 17450, "##oll": 13799, "##gles": 8352, "hair": 54787, "##icles": 7363, "shin": 12269, "##fl": 28665, "prone": 7012, "infection": 81837, "##ame": 16101, "##ym": 35896, "fungal": 7098, "bacterial": 22245, "nodes": 9806, "lump": 10129, "##itis": 32698, "##den": 17486, "viral": 15557, "dull": 6519, "pins": 4614, "cohen": 1587, "hand": 89662, "trapped": 4665, "needles": 5642, "ache": 9473, "weeks": 104583, "mild": 36424, "extend": 15534, "breast": 28574, "addition": 75656, "look": 148931, "##aging": 2347, "strongly": 9189, "##yp": 45539, "veins": 12474, "moment": 18458, "totally": 9440, "recommend": 29352, "suffer": 14529, "##hom": 7373, "posting": 8716, "ignored": 2771, "trapping": 1551, "diagnosed": 16698, "joints": 20166, "typing": 6529, "exercising": 4441, "lifting": 6007, "numb": 12420, "discomfort": 13530, "sore": 23330, "##ching": 18458, "objects": 23575, "virus": 30966, "weaken": 3120, "##ocation": 3302, "chicken": 38283, "swelling": 32366, "##fect": 14408, "ty": 18297, "##sl": 10600, "hardened": 2050, "infected": 20157, "patch": 9842, "sweat": 9925, "glands": 19854, "bacteria": 59904, "radiating": 1301, "hygiene": 4472, "accompanied": 11293, "sleeping": 9871, "##chia": 4960, "bra": 16278, "concentrate": 5851, "controversial": 5531, "shatter": 707, "##bbing": 908, "colorado": 18804, "marijuana": 12949, "fastest": 14039, "bust": 4204, "hash": 4538, "illustrator": 1293, "behave": 4129, "graphic": 6516, "layer": 41485, "##tt": 8806, "##hop": 4270, "file": 93135, "dangerous": 21351, "learned": 15127, "garage": 11054, "blowing": 3069, "rooms": 13888, "ricardo": 504, "ba": 42228, "cannabis": 5234, "oil": 101717, "popularity": 19386, "##bs": 38668, "stoke": 761, "temps": 1724, "##42": 5783, "epic": 7986, "told": 33447, "##tagram": 6267, "hell": 6872, "##hg": 2757, "races": 5697, "##ill": 11724, "fl": 55492, "61": 24922, "laude": 646, "households": 6936, "295": 2342, "92": 21484, "304": 2677, "39": 38046, "06": 20609, "49": 30876, "96": 18241, "94": 19000, "286": 1647, "228": 2380, "355": 2081, "760": 3415, "partner": 19014, "unmarried": 1674, "91": 18473, "educated": 5106, "77": 22602, "represent": 23692, "73": 19268, "294": 1757, "prevalent": 5281, "2006": 28975, "##cs": 15862, "##isi": 5642, "stat": 9568, "2009": 42561, "tin": 16246, "smoothing": 718, "##pie": 3494, "teeth": 29281, "implements": 1753, "ea": 18444, "outer": 26935, "roof": 19861, "perpendicular": 4166, "runs": 28327, "rake": 1733, "peak": 19816, "ridge": 9462, "fetch": 1737, "candle": 3210, "##out": 20072, "recommended": 44056, "##ol": 41859, "##ics": 15627, "##chan": 6615, "removing": 15739, "tasks": 14907, "software": 52678, "ruby": 3312, "standalone": 1804, "utility": 13704, "replaces": 3429, "unix": 2089, "sophisticated": 4374, "rage": 2206, "gather": 7157, "1630": 600, "danish": 3433, "gunfire": 258, "rubbish": 567, "1580": 487, "raked": 316, "scandinavian": 2601, "exterior": 9703, "beyond": 29392, "hangs": 1558, "##water": 13003, "arteries": 16674, "systemic": 7826, "bp": 8360, "circulation": 12576, "specification": 4778, "circulating": 3821, "suggested": 12788, "outputs": 1838, "##ment": 51218, "##ula": 21357, "sensitive": 17924, "##form": 13970, "probability": 5884, "inputs": 3300, "numerical": 5615, "255": 3897, "hyper": 41791, "controlling": 8385, "##tension": 8831, "influenced": 9316, "peripheral": 12542, "##ore": 14372, "arterial": 4537, "varies": 35102, "resistance": 20163, "##rine": 17133, "emotional": 16502, "regulated": 7058, "##ors": 19474, "cardiac": 12835, "levels": 95833, "##sto": 13570, "beats": 7998, "resting": 7638, "artery": 16136, "##lic": 13968, "cycle": 42121, "##ress": 8652, "##rop": 25496, "scenario": 4662, "##sop": 3139, "oxygen": 54015, "##cia": 11702, "corona": 10508, "110": 16328, "app": 68222, "##rp": 16570, "falls": 25481, "deprived": 1417, "##sh": 28174, "armour": 1453, "saints": 2399, "approval": 12648, "hometown": 2862, "##isk": 2376, "orphans": 367, "chicago": 24436, "former": 40877, "president": 74267, "johnson": 13363, "stockings": 813, "ban": 10914, "cubs": 2328, "swept": 1724, "##ley": 13815, "27": 51872, "##ig": 24387, "phillip": 1434, "sox": 1835, "duel": 1177, "matt": 9706, "hum": 8350, "fen": 6296, "park": 58180, "##rza": 406, "boston": 16373, "500": 95788, "wr": 11573, "banned": 3510, "baseball": 15511, "wonders": 3162, "teams": 18646, "230": 7214, "batting": 1443, "1919": 4060, "1906": 2642, "nickname": 8844, "fixing": 2993, "wore": 3672, "seventh": 6925, "climbs": 1010, "finishing": 4993, "falling": 12138, "disappointing": 804, "shortened": 4218, "abbreviated": 8303, "headlines": 2246, "tribune": 1447, "alternatively": 6714, "charter": 6802, "franchises": 1770, "franchise": 11360, "champions": 3181, "defending": 1935, "beat": 16985, "1901": 3462, "inaugural": 1669, "appearance": 31709, "beating": 4551, "reins": 4450, "jerry": 3981, "guaranteed": 9474, "mlb": 4231, "compete": 9322, "##dorf": 1282, "##ide": 29012, "bottle": 19050, "1940": 5823, "bottles": 6794, "deposit": 18386, "collect": 18133, "pick": 34457, "emptied": 637, "laws": 37414, "guam": 1987, "recycling": 4646, "capture": 9585, "reduce": 62616, "bills": 12923, "summary": 30028, "beverage": 6936, "cans": 3947, "litter": 5054, "committee": 14790, "124": 4346, "vote": 22498, "rejected": 3585, "testimony": 2180, "sold": 44777, "carbonate": 6118, "soft": 48474, "deposits": 12454, "value": 110962, "oregon": 14718, "amended": 4486, "pass": 47590, "efforts": 12977, "contentious": 682, "politically": 2067, "prompted": 4061, "beaches": 8587, "initiatives": 2824, "green": 76542, "highways": 3091, "connecticut": 10167, "maine": 7849, "voters": 5110, "adopted": 15975, "proposal": 5199, "michigan": 21678, "spurred": 564, "legislature": 7729, "referendum": 1269, "apparent": 7931, "liquor": 4883, "wine": 23846, "milk": 46560, "infant": 9592, "redemption": 1833, "expands": 3163, "dairy": 15597, "formula": 36517, "distributor": 3211, "exist": 21764, "experimental": 5510, "centers": 21916, "returns": 21949, "curb": 4096, "bite": 12081, "richard": 14509, "editorial": 2617, "hodges": 303, "supermarket": 2893, "##side": 7977, "default": 25729, "specify": 10963, "preceding": 3926, "doo": 3206, "##dle": 5978, "explorer": 13047, "browser": 20219, "##antly": 674, "vista": 8308, "panel": 24301, "heading": 7811, "desktop": 15838, "else": 33448, "apps": 15465, "annoying": 3842, "bounced": 447, "##page": 8843, "preventing": 10756, "sets": 23764, "whenever": 11764, "sep": 16060, "clicking": 12836, "fine": 40046, "##il": 28540, "issue": 45087, "gma": 4757, "fire": 55089, "laser": 9373, "printer": 10116, "emails": 5216, "##ault": 493, "asks": 5761, "##ef": 21520, "repeat": 13407, "ok": 27654, "##tech": 4062, "forget": 11587, "brows": 18164, "readers": 9979, "exhibit": 6814, "hearing": 20781, "reliability": 4697, "mechanics": 5189, "relevance": 3267, "exhibits": 3307, "officers": 13677, "witness": 4662, "proper": 38006, "arguments": 4664, "vs": 31256, "statutes": 4980, "offenses": 2560, "prosecuted": 807, "safeguard": 2363, "court": 68327, "govern": 4740, "trier": 243, "reaching": 12262, "decision": 29845, "encompasses": 5082, "proceeding": 3008, "##anor": 5021, "sentences": 12894, "prison": 12853, "##lon": 8992, "mis": 34706, "decides": 3999, "valuable": 13410, "advances": 4396, "gain": 30526, "courts": 12896, "1995": 13289, "defence": 2663, "imaging": 9011, "implicit": 1746, "acceptance": 7213, "supreme": 15127, "2d": 2763, "appeals": 4841, "##dm": 3838, "##ible": 25727, "chain": 29696, "prove": 13162, "creator": 5914, "ina": 10311, "authentic": 6030, "custody": 6204, "render": 3474, "tender": 21090, "skill": 21667, "worthy": 3158, "convince": 2163, "prosecutor": 1670, "dependent": 24098, "qualifications": 5680, "prosecution": 2413, "##missible": 1975, "defense": 20121, "relevant": 15492, "prejudice": 1944, "reliable": 14400, "judge": 15451, "meets": 12305, "senses": 7908, "clothes": 10582, "perceived": 5106, "diagrams": 2280, "illustrates": 3155, "tangible": 2730, "maps": 15479, "lift": 15512, "gate": 8513, "heights": 7625, "vendor": 4873, "truck": 18308, "hauled": 495, "lengths": 6319, "capacity": 27122, "furniture": 10628, "102": 9998, "commodities": 2267, "cleaning": 20105, "roads": 9570, "axle": 3629, "tractor": 2684, "trailer": 9507, "gross": 20307, "hitch": 2268, "fifth": 18117, "wheel": 18717, "distinctly": 1457, "attache": 4467, "rigid": 7366, "borne": 4378, "28": 60807, "57": 25880, "##nce": 22337, "##ena": 10101, "propelled": 1361, "camp": 15853, "height": 45079, "mirrors": 2168, "##urt": 2216, "rv": 5848, "lbs": 14243, "door": 27645, "##lets": 8528, "dock": 4463, "planning": 35795, "definitive": 4188, "freight": 4752, "manufacturer": 19717, "##rative": 3518, "##ust": 10343, "62": 25412, "camping": 3809, "steering": 5007, "caps": 7256, "trucks": 7579, "removed": 32022, "72": 30230, "requirement": 16524, "meters": 18515, "kg": 19017, "combinations": 6354, "load": 23453, "regulations": 18722, "robinson": 3356, "assistance": 21516, "trailers": 3200, "permits": 7456, "rear": 16864, "portrayed": 4541, "portrays": 1077, "hulk": 1157, "image": 48660, "character": 47580, "avengers": 1235, "banner": 2941, "comic": 6845, "scientist": 6690, "##by": 17728, "marvel": 5083, "comics": 4426, "dramatic": 8518, "hour": 105011, "preceded": 2554, "experimentation": 1009, "creature": 4511, "teenager": 3107, "misunderstood": 1501, "incredibly": 5574, "transformed": 3966, "hero": 9045, "ang": 15308, "explosion": 3866, "stronger": 11510, "##rier": 1228, "liv": 2336, "kicks": 3180, "desperately": 876, "cure": 14731, "norton": 1492, "explosive": 3537, "roth": 7382, "starring": 7959, "hunts": 1155, "poisoned": 647, "##dled": 494, "heroes": 3912, "tyler": 3533, "hurt": 9775, "##bolt": 1197, "pursued": 1444, "secrecy": 748, "nemesis": 583, "shadows": 1817, "thunder": 9231, "daughter": 26320, "gen": 23542, "everything": 45294, "beautiful": 36099, "betty": 1814, "tha": 13467, "##eus": 3045, "ross": 5754, "##dd": 5669, "traveling": 12869, "haunted": 1350, "stays": 9934, "##oss": 6980, "beast": 3774, "ce": 69595, "##db": 5448, "theaters": 3393, "facebook": 28062, "##ging": 15688, "flashbacks": 403, "experiment": 9967, "enraged": 240, "stressed": 3517, "seriously": 7303, "222": 3285, "fresh": 48960, "reviews": 31402, "vigorous": 2828, "ya": 18863, "critic": 2933, "climax": 1286, "critics": 4505, "rotten": 1917, "dvd": 10568, "info": 30352, "teachings": 1377, "objectives": 9297, "depend": 27682, "duties": 14030, "coincide": 2175, "curriculum": 6668, "adapt": 13626, "songs": 17294, "background": 25684, "bungalow": 497, "score": 31186, "effectiveness": 9280, "marketplace": 5855, "attributed": 5346, "sat": 21302, "subject": 53572, "session": 13797, "advertisements": 3656, "revenue": 26297, "universe": 11913, "quantity": 15887, "applicants": 10091, "##ize": 46507, "craig": 3923, "##ist": 41447, "swap": 3827, "cheaper": 11639, "131": 4185, "##mon": 14730, "convenience": 9959, "ku": 13616, "focusing": 5403, "guessed": 1138, "prep": 17321, "hadn": 1696, "lessons": 6104, "advanced": 32001, "unfortunately": 14128, "expansion": 12179, "glance": 4242, "ye": 6223, "parent": 29148, "receives": 15988, "ratings": 11657, "uneasy": 424, "masters": 5597, "##\u00a3": 22207, "affluent": 1091, "replies": 4503, "london": 27731, "leo": 3809, "lorenzo": 734, "consequently": 4206, "dubois": 431, "omitted": 1306, "hip": 24787, "hitler": 3800, "##sd": 5868, "1968": 8373, "##cure": 2005, "cousin": 4641, "conflicts": 3473, "lush": 2653, "palmer": 1911, "veronica": 809, "aimee": 265, "episodes": 14353, "garcia": 1419, "carmen": 1215, "episode": 22188, "##ght": 5855, "pregnant": 25496, "george": 27895, "stack": 6163, "searches": 6432, "dream": 16774, "needle": 8503, "doubles": 2421, "blunt": 2729, "excellence": 5469, "stunt": 1754, "belgian": 1854, "instrument": 13440, "mali": 9526, "title": 51899, "carlos": 2053, "adopt": 5712, "chop": 7980, "dogs": 39480, "canine": 5128, "rebellious": 562, "##kin": 12131, "headline": 2046, "shoot": 6249, "##cc": 24600, "##ups": 3923, "crucial": 9756, "fallen": 5670, "##az": 8535, "heroic": 1442, "##erman": 1046, "lyrics": 11581, "thomas": 19923, "arranged": 8052, "kelly": 5863, "doug": 2129, "##ehan": 288, "producers": 8164, "adapted": 7811, "mel": 22913, "##elo": 7890, "accounts": 29726, "angie": 1114, "wren": 3269, "handler": 2323, "sequels": 763, "unable": 15921, "traumatic": 5202, "stress": 38178, "##cott": 1628, "robbie": 799, "sight": 8551, "afghanistan": 3877, "coffin": 1157, "kyle": 2246, "##ny": 18936, "ryan": 6679, "philadelphia": 11383, "diablo": 650, "gin": 6844, "marcus": 2124, "##linger": 307, "walnut": 4480, "ul": 26345, "drummond": 314, "calling": 18009, "courthouse": 4025, "newest": 15147, "oldest": 28376, "candidates": 10889, "newspaper": 7329, "smart": 19064, "election": 16410, "lots": 25365, "button": 49621, "outlined": 4240, "rating": 29590, "congressional": 5761, "gubernatorial": 433, "anymore": 5093, "showed": 12573, "senate": 16411, "##minating": 719, "303": 2554, "candidate": 11381, "seat": 32354, "seats": 11242, "petition": 5894, "council": 18008, "108": 8780, "ot": 21170, "\u00a7": 16336, "petitions": 729, "openings": 4426, "independent": 33693, "ska": 1939, "ic": 23360, "districts": 7674, "opposition": 4437, "broken": 27622, "gore": 1740, "##git": 4880, "washington": 52068, "kerry": 1165, "carried": 17232, "derek": 1658, "##lmer": 486, "rounded": 7760, "shadow": 5778, "##cat": 9151, "##usa": 11351, "nam": 2773, "elections": 6116, "\u00b7": 50055, "##lai": 5892, "disc": 30307, "supports": 16545, "##claim": 2431, "opposes": 691, "une": 10110, "statements": 12057, "##dit": 5182, "police": 28183, "imaginary": 2142, "station": 29548, "arbitrary": 1999, "drawn": 12426, "##led": 16017, "precinct": 844, "polling": 1002, "space": 75932, "enclosed": 6163, "ready": 41444, "avenue": 10123, "costly": 4702, "complications": 14662, "obesity": 8254, "##mi": 36036, "spend": 31075, "snack": 7479, "##weight": 8755, "physically": 8920, "strategies": 10811, "accessible": 9523, "cdc": 6063, "obe": 6027, "onset": 10607, "consequences": 8912, "closing": 14962, "##ew": 14350, "fellowship": 2620, "##lates": 2430, "pregnancy": 41023, "##wr": 5193, "mm": 25641, "fruits": 24626, "recommendations": 9317, "vegetables": 33201, "drop": 42063, "improvement": 13194, "olds": 3981, "ec": 30942, "##rst": 5038, "concern": 15446, "contributes": 4967, "staying": 7302, "index": 32762, "tract": 28444, "breathe": 9262, "suffering": 11681, "harder": 9571, "respiratory": 20187, "asthma": 9640, "seattle": 10602, "broader": 4388, "northeast": 12436, "15th": 8206, "streets": 8020, "145": 8516, "centered": 6551, "speedway": 1233, "perfectly": 10095, "##eville": 610, "thick": 40535, "wen": 2140, "salty": 3601, "crust": 16912, "utah": 9536, "bonn": 1296, "flat": 43386, "##dale": 6050, "remote": 14696, "christmas": 12179, "sponsored": 10602, "##kee": 3589, "83": 21225, "miss": 16698, "tall": 29699, "attract": 6895, "jacksonville": 2974, "museum": 13931, "##ssee": 1062, "tel": 13488, "##aha": 3966, "seminole": 992, "outdoor": 15394, "intersection": 4601, "amsterdam": 2982, "##rigues": 333, "francais": 395, "aux": 1409, "ale": 10945, "pierre": 2032, "territories": 7296, "math": 16137, "##uni": 9608, "possession": 7309, "mauritius": 753, "rod": 11744, "##thest": 2797, "miners": 1305, "appeal": 9341, "civilized": 540, "silver": 24142, "wilderness": 3131, "notably": 5306, "occult": 1481, "textual": 644, "kelley": 1022, "investigations": 2812, "linguist": 858, "donald": 10995, "divine": 3767, "enoch": 258, "dee": 4095, "journals": 2151, "magic": 11909, "corpus": 4511, "16th": 8319, "reputed": 871, "examples": 61578, "integral": 6444, "##cock": 1110, "argue": 4472, "translations": 11729, "extraordinary": 4301, "colleague": 1403, "magical": 4264, "##gil": 2870, "revealed": 13364, "angels": 2672, "bind": 8566, "scholars": 4268, "spell": 4810, "protect": 40170, "whore": 307, "##iel": 3741, "babylon": 1362, "interference": 3216, "conceal": 1980, "cast": 29996, "##phs": 2231, "demonic": 393, "creation": 14151, "patriarch": 1146, "golden": 22362, "##rton": 972, "assertion": 1215, "ant": 18751, "tobias": 359, "chu": 5812, "biblical": 4441, "##vian": 893, "runes": 704, "eponymous": 1024, "dean": 5299, "##lian": 7090, "belong": 9439, "latter": 10104, "heavily": 8577, "transferred": 10930, "attempted": 4587, "heaven": 4823, "sessions": 6755, "artificial": 11845, "cc": 20138, "spoke": 7296, "##iom": 6721, "strange": 7397, "tyres": 505, "permanent": 25659, "buses": 3710, "cars": 26281, "tyre": 976, "plc": 2070, "produces": 29299, "headquartered": 5285, "split": 21057, "##itive": 5568, "1988": 8837, "operates": 12997, "ren": 8001, "nokia": 1373, "manufactured": 13733, "facility": 24740, "venture": 4854, "ev": 10208, "importance": 17670, "##flow": 9253, "utilized": 4286, "##oke": 5894, "utter": 1934, "emotions": 7404, "unite": 2563, "lore": 1919, "alphabet": 9434, "symbols": 11038, "righteous": 1174, "mankind": 2059, "159": 4604, "152": 5360, "transmitted": 12698, "associate": 16606, "astro": 5080, "sir": 11009, "155": 5578, "magician": 910, "##log": 9534, "buyer": 11182, "400": 45556, "shoulders": 7145, "##rai": 10044, "asset": 12226, "mortgage": 25037, "collateral": 3155, "estimate": 32499, "watched": 4609, "disciplinary": 1258, "complained": 908, "agency": 33137, "financing": 7654, "inspection": 9676, "dealing": 9953, "heck": 3017, "spit": 2662, "noticed": 9966, "banks": 18231, "junk": 3864, "##ria": 23472, "payment": 47438, "add": 146124, "ordered": 13728, "goes": 47477, "figured": 3282, "amc": 2463, "hu": 17604, "leg": 37309, "agree": 18372, "##erate": 2264, "confusing": 6670, "##it": 30851, "hidden": 12303, "customary": 3238, "frank": 10759, "reasonable": 12402, "dodd": 891, "hire": 11766, "hiring": 8529, "learning": 39911, "checked": 11453, "curve": 9447, "administrative": 14516, "investigation": 9423, "reform": 7519, "enacted": 4677, "schedule": 36197, "##ander": 2293, "defamation": 709, "libel": 615, "suffers": 2486, "sue": 4365, "tor": 12977, "bodily": 5784, "##uce": 6368, "false": 13559, "tr": 45502, "##fication": 8570, "religion": 12818, "tendency": 6573, "audio": 18431, "##jure": 2410, "remark": 1080, "##tory": 11481, "publication": 11742, "catch": 17480, "hurts": 2633, "constitute": 5085, "misleading": 2597, "distinguish": 8740, "jurisdictions": 4039, "printed": 12572, "publisher": 5115, "communicating": 2646, "upheld": 840, "intent": 6977, "heard": 25213, "verbal": 5659, "governed": 4752, "gesture": 1625, "plaintiff": 3169, "##ami": 8492, "pictures": 21857, "gestures": 1301, "17th": 7958, "inactive": 4729, "indefinitely": 2252, "sexually": 7437, "hs": 9006, "paths": 3924, "enters": 11039, "##ital": 11724, "##pes": 10809, "fever": 33596, "tooth": 23169, "##tum": 9021, "##ils": 10642, "categorized": 4633, "##ens": 22753, "##brush": 3084, "viruses": 16756, "sharing": 16419, "frequent": 17668, "##rence": 2765, "cracked": 4282, "break": 46459, "woman": 45230, "tingling": 7877, "anal": 10010, "raw": 26846, "ny": 27496, "hp": 16368, "hiv": 11184, "pv": 7754, "cancers": 9501, "clinics": 4652, "mistaken": 3166, "yeast": 14257, "##gina": 11448, "shorter": 15023, "decrease": 23444, "bleed": 4335, "outbreak": 5736, "lining": 16593, "##nes": 8353, "suspected": 5645, "fake": 4913, "psycho": 10854, "elusive": 1216, "psychic": 1855, "fraud": 7173, "##eki": 1097, "enhancing": 3006, "phenomenon": 8272, "channels": 9862, "fiction": 8051, "##ners": 4211, "##ner": 19924, "dreamed": 998, "brains": 5203, "haven": 16007, "yourselves": 379, "maneuver": 2355, "psi": 4760, "thoughts": 12066, "oppression": 1008, "halo": 4847, "spinning": 4060, "sit": 23650, "pyramid": 6138, "relax": 10946, "relaxed": 3888, "chair": 8966, "##itate": 3258, "fear": 14452, "shifter": 385, "forum": 13882, "particles": 17147, "amin": 2642, "atoms": 19309, "knows": 13795, "touch": 32145, "handheld": 1812, "##elling": 1212, "##elle": 5621, "portable": 8201, "mosquito": 5270, "mat": 10853, "fabric": 15716, "flames": 1816, "soaked": 2999, "##ane": 15896, "cartridge": 2727, "worry": 13446, "mats": 2000, "accessories": 9729, "clip": 10064, "holster": 299, "kit": 15019, "purchased": 23874, "sent": 30622, "sw": 20983, "separately": 8466, "mostly": 38452, "lighting": 7973, "candles": 2218, "spray": 17717, "magnet": 6419, "coil": 6905, "##sky": 3064, "##cea": 3712, "smoky": 1876, "covering": 17229, "pe": 53632, "##itte": 2402, "involve": 15023, "##pp": 19293, "bug": 7868, "##ella": 10615, "arena": 14755, "##tron": 3787, "fashioned": 3127, "outing": 1033, "##\u00ae": 58202, "peace": 17363, "##ab": 21566, "225": 7277, "bree": 1762, "deck": 11554, "sitting": 14164, "patio": 4906, "##zy": 7556, "3a": 8772, "##ellant": 1194, "nile": 3654, "##yi": 2848, "eggs": 40116, "entirely": 14734, "vol": 17632, "##zes": 7033, "shut": 10956, "insect": 9386, "releases": 11471, "switch": 22744, "slides": 5748, "carrying": 13246, "slip": 7703, "tight": 16073, "##nent": 2149, "##ratic": 1370, "##lace": 3137, "slope": 6747, "fraction": 12479, "equations": 3959, "expo": 3701, "##up": 46233, "formulas": 5797, "quad": 9445, "intercept": 1567, "algebra": 2066, "##rize": 2409, "ate": 11269, "permission": 10234, "signifies": 2470, "registration": 21253, "compass": 2888, "unlock": 6284, "password": 16452, "answers": 36585, "reviewers": 785, "charged": 24709, "helping": 18783, "stimuli": 3619, "fairness": 1256, "960": 2668, "##try": 5726, "models": 24559, "tapes": 1364, "input": 16654, "pads": 6198, "geometry": 4139, "multiple": 58057, "##time": 18012, "succeed": 4073, "mathematics": 8579, "assessment": 20540, "abilities": 7713, "admission": 10926, "adaptive": 2810, "energies": 1916, "decreasing": 5468, "##met": 14313, "##als": 8656, "metals": 12714, "##loid": 6283, "periodic": 9487, "columns": 8166, "proton": 8546, "orbiting": 1368, "electrons": 14312, "neutral": 14427, "nucleus": 16398, "filled": 24984, "vertical": 14156, "rows": 8331, "framework": 11266, "core": 32772, "electron": 12268, "##most": 7957, "shells": 5339, "orbital": 4090, "decreases": 10066, "##men": 22690, "numbering": 2146, "predictable": 2399, "##iva": 8663, "tangent": 1471, "bro": 37660, "equation": 13212, "asked": 34057, "arc": 9978, "gases": 12741, "similarities": 4447, "##kali": 10203, "noble": 5707, "##gens": 5097, "serbian": 766, "pri": 12261, "franz": 1289, "nationalist": 1017, "##ip": 24103, "##nc": 10735, "assassinated": 1346, "##iba": 1824, "##car": 11382, "archduke": 498, "des": 20333, "##vr": 4018, "##ej": 1254, "##ilo": 2429, "##ev": 6680, "heir": 3392, "austria": 5725, "austro": 785, "duchess": 1003, "shot": 23351, "sarajevo": 285, "serb": 286, "il": 19113, "##berg": 8090, "dani": 883, "throne": 6146, "hungarian": 2237, "bosnian": 293, "assassins": 320, "sophie": 922, "hundred": 15803, "reuters": 2662, "ju": 14328, "blank": 8475, "##nation": 11914, "concessions": 703, "serbia": 1578, "##avs": 336, "hoped": 1977, "planned": 10042, "unified": 4148, "##asi": 6439, "freedom": 15753, "fighter": 3351, "pawn": 1189, "eliminate": 13234, "obtain": 28903, "assassin": 1158, "terrorist": 2183, "centennial": 1242, "statue": 4649, "eve": 5192, "serbs": 193, "unveiled": 2753, "pond": 5071, "succession": 3091, "##sum": 6287, "##beat": 1866, "##ptive": 1721, "fluffy": 2122, "drum": 5390, "fired": 5971, "whom": 15593, "shifting": 2740, "nineteen": 1113, "shots": 7203, "revenge": 2109, "successfully": 12375, "ned": 1253, "underneath": 7883, "##cade": 902, "grab": 6146, "##rino": 2077, "grenade": 276, "rolled": 5378, "##fk": 2404, "##ira": 8651, "failed": 10650, "threw": 2024, "exploded": 1276, "##vic": 14955, "##ez": 5986, "cab": 9579, "##lk": 9162, "attempts": 7998, "480": 5319, "##ados": 859, "mg": 37146, "320": 6921, "carefully": 15800, "dose": 31732, "instructions": 34985, "label": 20557, "ace": 23225, "##tam": 21719, "ml": 19075, "ing": 23332, "overdose": 4763, "counter": 30725, "relieve": 16800, "cheek": 3479, "tightly": 7117, "remove": 85102, "replace": 31328, "insert": 22772, "withdraw": 4965, "prescribed": 17307, "tablets": 13251, "4000": 4535, "1000": 28192, "conveyed": 1149, "guidance": 10754, "dos": 19583, "doses": 13630, "prescription": 25676, "360": 12481, "repeated": 9146, "rapidly": 15849, "absorbed": 12609, "assess": 15997, "establish": 14060, "prompt": 10097, "outcome": 7518, "##dos": 5138, "spoon": 7543, "grams": 29780, "##ola": 13083, "232": 2687, "favorite": 33668, "##33": 7389, "participation": 5982, "invited": 4038, "seniors": 3869, "february": 49620, "bigger": 16232, "transit": 11141, "governmental": 3933, "##rations": 1291, "quarters": 6360, "##ume": 10335, "request": 32669, "##ory": 9919, "76": 21425, "pulse": 8233, "heartbeat": 6570, "minute": 39448, "feels": 12580, "glowing": 1433, "coloured": 2662, "sensor": 8004, "prism": 2173, "wherever": 4965, "amp": 21381, "lens": 9525, "visuals": 588, "##fy": 7440, "transform": 7845, "irregular": 10343, "faint": 5269, "pumping": 3957, "tend": 46840, "illness": 27351, "ages": 28319, "exercise": 41339, "##uate": 4857, "nurse": 23128, "unless": 39874, "pushing": 5802, "##cope": 5363, "monitors": 4180, "ste": 31541, "pumps": 6802, "sensation": 13978, "blue": 72714, "##tooth": 5196, "sound": 49313, "speaker": 9021, "enabled": 7952, "listening": 5519, "speakers": 10092, "##eva": 6632, "connecting": 11116, "ecosystem": 5018, "cancel": 13141, "echo": 4969, "##phone": 4157, "decent": 6096, "allergic": 17362, "pushes": 3059, "measurement": 22351, "dies": 8655, "accidental": 3139, "accident": 14058, "##nity": 3414, "protection": 40016, "agreements": 5390, "behalf": 8647, "investigates": 890, "losing": 11194, "##urable": 1742, "die": 27219, "##ici": 20330, "##urance": 3033, "binds": 5160, "##ins": 21202, "differences": 28126, "##qu": 4922, "liability": 14674, "##ically": 4404, "define": 25824, "limitations": 8764, "##urer": 5082, "contingent": 1714, "uncertain": 3900, "entity": 13804, "hedge": 3579, "##encies": 1566, "specified": 18588, "guarantee": 12767, "adjust": 16985, "intelligence": 11426, "employees": 57480, "explore": 19835, "##vis": 13871, "bahia": 395, "honda": 5905, "sandy": 6040, "pine": 14707, "confirmed": 12847, "valid": 24853, "##ook": 3572, "booking": 7116, "delivered": 14311, "valued": 5246, "shore": 8770, "coasts": 1832, "sand": 26495, "fable": 1138, "shores": 3571, "constantly": 11548, "swat": 1843, "fishing": 15546, "fairy": 2908, "finest": 5619, "cove": 2680, "bore": 4906, "carpet": 8279, "nature": 45688, "plenty": 21027, "cape": 8642, "trademark": 8963, "sun": 67836, "fabulous": 2760, "lauderdale": 2421, "marks": 15493, "augustine": 1582, "props": 740, "rome": 10103, "##abe": 3662, "##aan": 10950, "ultimately": 11869, "drowned": 578, "invasions": 526, "roman": 20075, "barbarian": 409, "puzzles": 1142, "##plex": 3373, "shattering": 322, "entries": 6352, "romans": 4235, "ecology": 2399, "levy": 2377, "armies": 2149, "plague": 2951, "decline": 9813, "dec": 31501, "emperors": 1050, "##imated": 943, "raise": 21410, "cy": 46842, "mediterranean": 9610, "domain": 13733, "managing": 11609, "barbarians": 193, "superiority": 966, "kilometres": 5557, "nations": 16850, "21st": 6651, "##ajan": 243, "empires": 1434, "brief": 17995, "grip": 5187, "millennium": 2274, "##avian": 1167, "victory": 9023, "prosperity": 2294, "dramatically": 6003, "unprecedented": 1938, "successor": 3039, "stability": 8787, "imperial": 7499, "##ava": 5269, "constantinople": 839, "##nti": 9208, "treasury": 5543, "##aby": 2978, "counterparts": 2958, "grew": 14720, "bc": 17313, "populace": 463, "\u00f8": 2639, "##\u00bd": 15867, "##\u00f8": 2922, "##\u00ba": 21316, "##\u00b9": 7513, "##\u00b1": 17340, "##ug": 8770, "290": 4095, "intensity": 11176, "viii": 2335, "earthquake": 6703, "magnitude": 7168, "distribution": 27192, "stockton": 916, "somewhat": 15547, "bert": 1469, "grit": 3823, "##oe": 15121, "134": 4367, "joaquin": 1094, "158": 4345, "##eda": 4057, "farm": 18784, "sierra": 3696, "broad": 24632, "terrain": 4679, "##ri": 47630, "delta": 9428, "sacramento": 3781, "confluence": 1480, "orchard": 1296, "corner": 22277, "nevada": 10295, "foothills": 1571, "##gated": 2704, "ir": 35040, "243": 2237, "nearest": 13472, "thru": 5710, "tea": 41340, "bags": 10920, "sack": 1652, "dimensional": 5915, "##ton": 28274, "rectangular": 4439, "innovations": 2150, "1950s": 6839, "floral": 2457, "##ise": 20531, "##bol": 12359, "##ids": 20675, "##ck": 26056, "boost": 16042, "dragon": 8288, "##ech": 3821, "##olo": 9962, "taste": 35327, "blend": 17560, "sip": 3855, "pack": 19358, "sweetness": 1989, "citrus": 6038, "sediment": 4294, "diet": 77969, "##mart": 7368, "wal": 11292, "style": 53515, "thanks": 25719, "flavor": 32967, "loose": 15572, "nes": 1601, "cup": 51702, "habits": 8389, "arabian": 2226, "migrant": 698, "subcontinent": 1304, "brew": 5381, "count": 32398, "labels": 8171, "packaging": 7125, "##grate": 1322, "bought": 19776, "hunt": 7814, "##sin": 13875, "consistent": 12688, "longer": 84616, "basis": 43549, "abandoning": 340, "abbey": 1727, "bing": 4698, "watching": 10946, "steaming": 1587, "soothing": 2518, "warming": 5773, "lose": 30461, "hunger": 5121, "##lly": 4405, "##tera": 5195, "stored": 29271, "dim": 11622, "##ming": 10351, "hormones": 22125, "##gs": 15432, "##bil": 9621, "technologies": 11030, "connectivity": 2578, "cellular": 15035, "dual": 10602, "##bility": 16834, "category": 31327, "##vable": 6628, "assign": 6359, "##01": 7888, "##ei": 12528, "abc": 10858, "##vs": 3971, "commodity": 3415, "costing": 4057, "acronym": 13602, "automated": 6687, "encoded": 2178, "identification": 16405, "uc": 9082, "carriers": 7673, "employ": 4400, "frequency": 22119, "gt": 6330, "gs": 8340, "describes": 23683, "rf": 4684, "smoothly": 3262, "elite": 6213, "##tation": 6025, "##bly": 8448, "mobile": 38881, "processor": 7664, "improved": 11442, "##unt": 11118, "intel": 5775, "epa": 7419, "##ants": 11411, "##oro": 10861, "##xa": 16944, "##13": 9644, "prints": 3101, "processing": 25648, "wan": 3767, "reporting": 17395, "val": 10467, "intervals": 6406, "supervision": 6444, "configured": 3205, "mode": 27147, "##fp": 2888, "feature": 38455, "ds": 13399, "youth": 11298, "rehabilitation": 6060, "aging": 11074, "##itor": 4172, "accreditation": 3796, "behavioral": 8299, "##red": 14217, "nonprofit": 5821, "founded": 33272, "facilities": 21719, "brandy": 1479, "##heard": 1048, "memories": 5017, "harbor": 9455, "lady": 11948, "meanings": 19659, "highlight": 6754, "##nsky": 151, "##ob": 19071, "girl": 34597, "rock": 53309, "elliot": 883, "song": 43235, "lawrence": 5223, "lu": 47073, "drums": 3651, "guitar": 8590, "1969": 8969, "quartet": 788, "jeff": 6397, "##rie": 5508, "pieter": 240, "oracle": 4268, "##aud": 1639, "downloadable": 1398, "excerpt": 2005, "mp3": 3315, "sailor": 1216, "steal": 2795, "laying": 5743, "whiskey": 2618, "yeah": 4108, "br": 39800, "fade": 2938, "fictional": 7073, "sailors": 1955, "disturbance": 2970, "waves": 16912, "sonic": 2163, "##ler": 36451, "observed": 13319, "332": 1731, "71": 22085, "lock": 14811, "119": 4959, "hr": 24713, "loud": 7544, "##sonic": 1755, "##year": 1956, "hence": 16345, "phenomena": 4655, "plane": 15552, "myself": 8873, "hope": 27980, "comments": 26549, "barrier": 9344, "narrower": 1682, "unchanged": 2727, "aircraft": 14425, "discussed": 11117, "classroom": 8860, "detail": 16553, "fence": 6654, "louder": 989, "softer": 3348, "suppose": 5263, "taps": 1210, "fail": 10001, "couldn": 9275, "courses": 20756, "grades": 8858, "internship": 3601, "electrical": 30686, "intern": 4746, "semester": 9077, "finish": 22473, "scores": 15459, "institutional": 3869, "departmental": 807, "eng": 5867, "##line": 42730, "independently": 5584, "interested": 20947, "thesis": 3199, "oriented": 6755, "technical": 23396, "##hips": 2207, "master": 34114, "keen": 3119, "competition": 14723, "##ear": 8992, "antennas": 905, "exposed": 18217, "towers": 3492, "locate": 13254, "highly": 41428, "accurate": 25403, "tomorrow": 6093, "##tower": 376, "phones": 10499, "neighbours": 814, "##meter": 5741, "severity": 11612, "purely": 2957, "differing": 2375, "emissions": 5864, "sensitivity": 8842, "instinct": 1697, "blanket": 3730, "reside": 4380, "putting": 15365, "##stra": 4599, "fist": 3736, "frequencies": 4222, "switched": 3680, "heads": 14158, "throw": 10931, "transmitter": 1754, "interfere": 7294, "neighboring": 4337, "dissemination": 834, "voting": 6357, "##ricting": 647, "##ort": 13434, "geography": 7574, "marion": 2581, "cary": 1272, "840": 2815, "272": 2174, "##itan": 3476, "herr": 797, "micro": 45236, "##pol": 10149, "carbon": 46112, "dispersed": 1517, "193": 1910, "williamson": 943, "civilian": 4798, "##cts": 10734, "##tle": 5244, "224": 2762, "rd": 12037, "1802": 757, "halfway": 5005, "motel": 2649, "260": 6882, "comfort": 15445, "271": 1577, "suites": 4493, "263": 1828, "americas": 4967, "receipts": 3083, "381": 1506, "sales": 55551, "122": 6503, "hotels": 18809, "nationals": 1842, "moral": 7227, "##tance": 1936, "enlist": 2179, "obtaining": 6592, "admit": 3814, "fluent": 1173, "rank": 13155, "tennis": 7102, "520": 3365, "contacted": 2975, "quoted": 4757, "thread": 10484, "dc": 17957, "##ban": 3099, "twitter": 15383, "billion": 35730, "discretion": 4006, "fiscal": 7723, "priorities": 2138, "wish": 23866, "requests": 7934, "assignment": 5899, "indoor": 8929, "fitness": 14571, "pools": 6033, "swimming": 11922, "pentagon": 1704, "respective": 6165, "privacy": 13786, "departments": 11151, "sought": 6441, "1974": 8170, "telephone": 16258, "personnel": 12162, "permit": 14369, "##80": 10039, "smooth": 31156, "scales": 7013, "1951": 3661, "1880": 4815, "bars": 11092, "lowe": 2544, "uncertainty": 2492, "wet": 26145, "amounted": 791, "groningen": 80, "calculation": 11362, "millimetres": 979, "fries": 3936, "precipitation": 17051, "hottest": 8046, "averages": 17286, "84": 21084, "daily": 81906, "##mm": 19779, "sunshine": 10402, "rotterdam": 375, "daytime": 7979, "maritime": 2997, "2a": 11141, "summers": 5291, "moderate": 20410, "##hre": 18586, "canals": 2402, "##nh": 19720, "##eit": 19466, "gale": 1790, "uncomfortable": 5753, "boasts": 3780, "complain": 3108, "##cm": 7404, "1970s": 9051, "highs": 4996, "consecutive": 7560, "row": 18781, "bells": 1713, "##eries": 673, "##elt": 3767, "smelling": 2711, "fish": 52457, "smells": 3849, "detect": 18451, "perceive": 2886, "sniff": 973, "nose": 27351, "##hale": 5800, "##saurus": 10705, "integrated": 12808, "fragrance": 3649, "perfume": 3067, "aroma": 5209, "scent": 4039, "##factory": 2207, "##hiff": 614, "##ite": 26447, "camps": 3805, "stink": 1521, "##rase": 2393, "pp": 17909, "stench": 244, "graded": 2870, "speech": 23496, "seem": 27489, "hear": 23700, "wake": 10159, "rat": 8860, "sweet": 36680, "trouble": 16885, "onions": 10083, "cite": 5623, "denote": 2990, "nouns": 5860, "fry": 10406, "ants": 3386, "leaned": 234, "softly": 504, "caressed": 28, "examining": 3460, "##cey": 323, "yan": 1807, "laden": 1659, "insects": 13601, "masculine": 2969, "suggests": 17276, "##coll": 1873, "edition": 17326, "publishers": 3716, "z": 46972, "1987": 8528, "learners": 9416, "texture": 15770, "##yard": 1548, "goat": 5032, "pure": 25112, "agra": 1917, "sheep": 7274, "yellowish": 3021, "creamy": 4915, "aba": 12252, "ingredient": 16448, "decidedly": 595, "cheese": 29283, "che": 19447, "##dda": 2615, "bargain": 2787, "tons": 14022, "##10": 18776, "snacks": 4284, "117": 5472, "geographically": 1787, "monterey": 1605, "friars": 231, "crafted": 2763, "spreading": 6367, "franciscan": 539, "devotion": 1578, "mania": 2125, "breadth": 1355, "##end": 13674, "goats": 3472, "slices": 6535, "cutting": 19567, "slice": 9520, "morse": 1020, "thin": 37210, "afraid": 4454, "herbs": 9875, "accompaniment": 916, "##kle": 11646, "complexity": 6925, "splash": 3962, "abundance": 4840, "consistency": 6504, "cu": 51773, "aged": 14026, "cow": 12449, "flavors": 7879, "##net": 15676, "gallons": 11761, "batch": 6444, "press": 52398, "gallon": 15369, "recipe": 22443, "wives": 2144, "12th": 6158, "surplus": 2696, "caves": 2098, "ideal": 27765, "gorge": 1987, "sounds": 22544, "barking": 800, "closes": 3635, "damp": 7435, "woo": 2081, "noises": 1941, "refrigerator": 17866, "howl": 950, "absence": 11681, "humming": 2261, "fridge": 9304, "notice": 39621, "excess": 28526, "moisture": 17906, "##ant": 38423, "knocking": 959, "switches": 3904, "timer": 3472, "wondering": 12446, "wo": 11858, "reassured": 178, "consult": 10050, "##oi": 5530, "##bles": 1602, "machine": 34466, "fan": 24047, "mechanic": 3894, "compressor": 3499, "bearing": 9776, "touching": 5207, "lightly": 8861, "clicks": 1998, "effort": 20341, "lucky": 6974, "struggling": 3746, "hiss": 432, "drip": 4665, "newer": 6896, "onto": 30073, "responds": 3566, "therapist": 10891, "##thic": 4476, "physician": 23797, "##tri": 28547, "##opa": 18925, "practicing": 4369, "specialists": 7888, "treating": 16779, "surgeons": 5532, "physicians": 13193, "focuses": 10266, "functional": 17297, "participate": 10435, "##ncies": 7063, "acquire": 7328, "directory": 12811, "##oa": 23041, "##sts": 9681, "sci": 8463, "##ky": 9270, "##atic": 11163, "##bro": 24298, "cord": 25112, "spinal": 22072, "##los": 13161, "ligament": 11120, "##ac": 48257, "##of": 19876, "athletes": 8595, "##lm": 10622, "##inate": 10878, "licensing": 8350, "doctorate": 2768, "surround": 4117, "hawk": 2926, "orb": 1563, "eagle": 7001, "spotting": 2447, "butterfly": 4106, "talking": 18512, "symbolism": 3422, "dove": 2843, "jay": 6226, "##bird": 4503, "rainbow": 4528, "owl": 2810, "praying": 786, "meditation": 2394, "calming": 1735, "stillness": 152, "cultures": 10528, "calm": 7467, "evaluate": 12780, "claude": 1240, "triangular": 3055, "tropical": 17858, "genera": 2841, "bulging": 2033, "##tidae": 296, "distributed": 11869, "430": 3701, "necks": 969, "##ds": 25527, "habitats": 4441, "symbolic": 4928, "attributes": 5633, "luck": 9611, "external": 26802, "flooded": 1498, "din": 4151, "realm": 2907, "chaos": 1976, "realms": 747, "coma": 9057, "clouds": 6595, "curious": 5388, "query": 5525, "formidable": 935, "agile": 2137, "~": 12157, "elegant": 4549, "##mble": 1529, "adversary": 565, "##izing": 17091, "draws": 4626, "ninja": 1653, "practiced": 3286, "##guard": 2293, "##wear": 4675, "##tf": 1968, "##nts": 21709, "shields": 1370, "##lithic": 593, "membrane": 26476, "oils": 15363, "pu": 33751, "##than": 4193, "##pone": 2150, "protective": 12046, "##thi": 6916, "lam": 8505, "coated": 6700, "fabrics": 3981, "thoroughly": 9061, "rugged": 3084, "resistant": 13138, "coating": 9799, "bea": 5501, "weighing": 6651, "roll": 21500, "saturated": 10679, "mattress": 3604, "tailored": 2626, "cushion": 3811, "##ster": 12855, "foam": 8319, "##glass": 6196, "robust": 4290, "##ong": 7119, "fiber": 38815, "versatile": 6838, "##ili": 17346, "##hol": 6424, "rubber": 12033, "wax": 11526, "silicon": 7969, "synthetic": 12543, "##yme": 12092, "##proof": 6129, "penetration": 2462, "conform": 6302, "inherently": 1341, "governing": 5537, "cloth": 11363, "consist": 12946, "specifications": 7467, "woven": 3156, "resin": 5902, "differ": 14883, "##ester": 7760, "exceptional": 5825, "outstanding": 9987, "hydro": 36835, "lines": 40875, "##cture": 7162, "nylon": 2985, "750": 12589, "kits": 5893, "za": 13489, "##over": 10701, "##wski": 928, "vehicle": 54364, "boat": 16533, "reasonably": 3734, "rebuild": 2487, "pip": 4769, "couch": 2448, "##tal": 27893, "loves": 5875, "store": 73657, "recovering": 2518, "backed": 5726, "##rro": 7122, "yard": 14876, "paint": 23314, "##ded": 10420, "doi": 1192, "##ours": 1412, "tampa": 4671, "175": 7651, "##lster": 992, "130": 14613, "indianapolis": 3796, "185": 3603, "kevin": 6455, "kent": 3482, "kaiser": 1445, "ram": 11149, "##bler": 958, "jeep": 3326, "##bay": 9939, "expense": 12476, "hinges": 1373, "##market": 2711, "installation": 30035, "springs": 12004, "vo": 14398, "specializing": 2905, "listings": 13497, "alert": 17489, "feed": 28353, "##llo": 13632, "updates": 17241, "##outh": 1468, "teachers": 14813, "presentations": 2463, "##west": 1106, "workforce": 5321, "sciences": 10537, "assumption": 3348, "##ec": 26314, "cards": 25907, "renew": 9031, "grave": 3617, "graves": 3114, "cemetery": 4445, "burial": 3410, "memorials": 512, "outcomes": 7374, "caring": 5780, "debt": 21269, "tracing": 1465, "singer": 23158, "coach": 11824, "playboy": 704, "adjunct": 1801, "##mate": 6772, "lindsay": 1004, "professor": 11417, "##chase": 1050, "yesterday": 9101, "airlines": 14198, "fed": 15606, "keith": 2919, "aft": 1141, "##bold": 406, "detroit": 7299, "mcdonald": 5141, "ford": 14385, "scrolls": 1115, "1984": 8804, "dukes": 571, "linda": 3562, "elder": 4126, "carter": 4665, "alt": 8295, "arizona": 18920, "phoenix": 7754, "1975": 8137, "iv": 20751, "##zza": 4101, "oblivion": 461, "pat": 13589, "##llins": 677, "commissioner": 3237, "##sco": 8903, "russo": 478, "twenties": 895, "walker": 4878, "divorced": 3850, "garrett": 1249, "sometime": 4059, "attractive": 9675, "gallagher": 602, "peter": 12279, "christina": 1676, "investigate": 4795, "ar": 45131, "progress": 15607, "##hmi": 4591, "##yt": 20233, "##eral": 6814, "tenor": 1195, "##rga": 1426, "drugs": 50166, "nad": 5146, "##rol": 7359, "##rano": 2537, "blocking": 5933, "lowers": 3643, "##ren": 21496, "calcium": 27529, "rhythms": 2081, "interrupting": 508, "cardiovascular": 9281, "attack": 32654, "summarized": 1627, "progression": 4655, "stroke": 18977, "##tics": 5811, "##lor": 32100, "##thal": 2643, "##idon": 1512, "ch": 44489, "wrist": 8782, "##maker": 6138, "monitor": 17752, "fingers": 13748, "stopped": 10339, "disappear": 4030, "admitted": 8111, "arrest": 9178, "rare": 47398, "ankles": 3620, "loop": 10483, "##ini": 19618, "lowering": 6271, "none": 17177, "##yer": 3718, "##nus": 2840, "##sit": 13943, "mata": 1647, "##cent": 10445, "##tee": 3485, "anchorage": 1818, "inhabited": 3036, "##ask": 1935, "russians": 983, "explored": 2509, "##hab": 3031, "requested": 7049, "gauge": 8513, "export": 9657, "chin": 6745, "grounds": 6660, "pink": 22077, "sock": 1312, "parks": 13919, "##eye": 3939, "campground": 2284, "spawning": 1222, "evil": 7812, "decorative": 5041, "bracelet": 1890, "attracts": 2508, "charm": 5133, "worn": 12067, "curtains": 1412, "resort": 16965, "possesses": 2893, "fell": 10727, "seaside": 1473, "##aint": 2515, "charms": 1319, "horseshoe": 1540, "##date": 4881, "##hort": 1886, "mad": 7401, "invested": 3239, "##off": 8719, "fortune": 6552, "legendary": 7141, "##imi": 14063, "[UNK]": 15596, "bernard": 2066, "escort": 786, "namesake": 1286, "patrons": 1308, "emperor": 6486, "##phi": 13235, "##pon": 8823, "theo": 3578, "##nese": 3890, "modest": 5437, "orders": 15762, "maud": 574, "prisoner": 2075, "goodwin": 382, "upton": 454, "christopher": 5967, "mor": 12892, "wilder": 927, "sinclair": 649, "remained": 9370, "publishing": 5808, "ending": 13683, "gladys": 491, "##base": 8239, "billboard": 4988, "elvis": 2920, "week": 112341, "presley": 2179, "tony": 5822, "brick": 8165, "brazilian": 3186, "disappointment": 990, "kan": 5228, "sick": 17068, "famed": 2378, "pocket": 12024, "1a": 13744, "inca": 6912, "chanting": 252, "amulet": 467, "##ntation": 638, "##iting": 2020, "rabbit": 5591, "ward": 4726, "expression": 19074, "habit": 8078, "ronnie": 905, "thompson": 3262, "irish": 20116, "scratch": 7070, "ordinary": 10387, "rovers": 242, "sister": 16028, "##mere": 2140, "moore": 5207, "manager": 34789, "tonight": 7307, "##cion": 1618, "sulfur": 6875, "ava": 4864, "der": 25012, "##mat": 25997, "##face": 4448, "##vac": 5196, "##lar": 24428, "topical": 6925, "##enia": 3283, "sodium": 26961, "cream": 30140, "suspension": 8373, "gel": 16672, "wash": 25407, "##poo": 21754, "evenly": 7603, "twice": 27488, "drops": 16623, "##biotic": 13513, "##nami": 1904, "##aking": 2885, "##dr": 10659, "##uf": 10462, "rash": 19197, "reactions": 22919, "agent": 33058, "veterinary": 6031, "rosa": 5501, "containing": 35078, "promoted": 4168, "##ytic": 5398, "##ules": 9869, "##rat": 17738, "disco": 14954, "powder": 29697, "bound": 13074, "hydra": 9050, "vinci": 1091, "151": 4914, "ideals": 1558, "painter": 3079, "sculptor": 976, "painters": 1437, "engineer": 11351, "supper": 993, "lisa": 3922, "mona": 2443, "architect": 4741, "leonardo": 1677, "renaissance": 5611, "paintings": 3497, "pier": 3076, "##rdo": 1592, "prominent": 12251, "##bo": 51244, "painting": 12279, "generations": 6954, "illegitimate": 591, "died": 41998, "cater": 4916, "##ona": 19035, "artist": 17493, "##fies": 6597, "enormous": 5914, "magnificent": 2841, "instruction": 9159, "appreciation": 3346, "andrea": 1590, "del": 44828, "apprentice": 2435, "##chio": 2257, "##ence": 6536, "peasant": 926, "##ntine": 512, "##cchi": 2735, "##lock": 8296, "wed": 3981, "milan": 2226, "chronicle": 1579, "talents": 2125, "ie": 13640, "attorney": 17511, "stayed": 4293, "humble": 2639, "beginnings": 2357, "##rent": 3665, "stepmother": 318, "##icing": 1401, "um": 11338, "greatly": 17823, "drafts": 1220, "nt": 11896, "battery": 25210, "buff": 2714, "hatch": 11051, "flock": 2954, "egg": 35938, "keeper": 1695, "anxious": 2789, "nest": 9083, "mara": 3343, "breeds": 9038, "darkest": 851, "breed": 18916, "chocolate": 14291, "genetics": 6865, "pigment": 11460, "weigh": 15341, "##ake": 5767, "##ets": 10431, "rations": 375, "foraging": 695, "pounds": 40962, "feeds": 4863, "##cci": 17184, "##nated": 3108, "maturity": 6617, "nice": 22346, "bird": 19260, "doc": 9350, "colour": 11985, "finely": 2831, "bred": 4451, "delay": 8428, "journey": 13849, "sunlight": 11850, "lays": 2546, "mystery": 6594, "mint": 7465, "pending": 4183, "seller": 11423, "terminate": 2409, "tied": 8388, "responsibility": 15678, "listing": 16568, "confirmation": 5437, "rejection": 2249, "announcing": 1885, "earnest": 1430, "##sed": 10901, "ape": 6502, "clause": 8780, "incorrectly": 2730, "##nding": 2890, "mls": 2431, "##ings": 8757, "circumstances": 15161, "portal": 6105, "##ick": 7089, "accepting": 3742, "hoping": 4565, "##ctive": 7879, "update": 30326, "implemented": 5770, "awaiting": 1571, "buyers": 8104, "qualify": 18370, "##ricted": 1558, "unrest": 1969, "##vy": 4983, "actively": 5396, "cooper": 4959, "withdrawn": 2059, "band": 34176, "rodeo": 1231, "##zell": 354, "##iz": 7510, "album": 26926, "moe": 1351, "sang": 4485, "clown": 1668, "artists": 11853, "recordings": 2935, "listen": 12831, "chorus": 2407, "subtle": 5417, "chords": 2061, "dutton": 113, "sauce": 27732, "songwriter": 7099, "newcomer": 710, "riding": 7458, "sweep": 2466, "dancing": 5304, "lights": 13435, "floors": 7455, "##dies": 3057, "nobody": 4364, "mmm": 481, "spin": 21407, "advisory": 4446, "ball": 28562, "explicit": 2789, "flashing": 2165, "##nin": 3022, "ride": 16950, "cowboy": 1638, "ro": 23783, "insane": 2012, "hooked": 2243, "draw": 19911, "bordering": 1735, "damn": 1813, "flash": 16227, "understands": 2093, "dollar": 21577, "##edance": 1026, "voltage": 12975, "transformers": 1548, "##eras": 5114, "nominal": 3982, "metallic": 6824, "circuits": 3768, "varying": 9892, "connection": 29677, "magnetic": 11121, "induce": 4902, "induction": 3179, "transfers": 9121, "generator": 5312, "circuit": 18270, "generated": 13292, "138": 3623, "converting": 7973, "##pic": 8561, "imperfect": 2072, "leak": 11180, "winding": 2425, "rei": 13267, "##ect": 12415, "reactive": 4674, "##dar": 4289, "120": 30421, "mv": 3173, "kv": 1223, "##\u00b4": 8799, "flux": 2478, "induced": 7022, "##aday": 768, "loaded": 7692, "horsepower": 3870, "dynamic": 11210, "##plate": 3230, "currents": 3986, "##ifies": 5878, "sim": 21727, "regis": 1531, "skiing": 2555, "spends": 4159, "audiences": 2825, "##rah": 3748, "relaxing": 4317, "candi": 7463, "##frey": 1380, "guest": 12940, "assortment": 2425, "signature": 11161, "##paper": 3352, "rug": 3329, "fashion": 15808, "olson": 532, "murphy": 2631, "shirley": 1394, "bergen": 1131, "politician": 3702, "patricia": 2077, "schmidt": 712, "sitcom": 3787, "humour": 792, "handles": 5309, "suppliers": 5181, "viewers": 5147, "##overs": 2710, "tag": 12168, "talented": 3748, "##arm": 18787, "##tte": 11692, "unexpected": 4686, "renovation": 2314, "furnishings": 1127, "designer": 9340, "designers": 4480, "jug": 3127, "secrets": 4195, "execution": 6018, "dishes": 11050, "fascinating": 4311, "inspiration": 6063, "glimpse": 1872, "##gling": 1348, "host": 31094, "##gt": 3529, "luxurious": 3181, "barbara": 4341, "candace": 351, "mike": 10083, "footsteps": 949, "kirk": 2993, "youngest": 6243, "cameron": 3130, "herself": 6909, "starred": 4406, "commercials": 2492, "weekly": 16001, "engaging": 3806, "stint": 987, "##ved": 6672, "announce": 4676, "humor": 4040, "millions": 18494, "deeper": 8826, "showcasing": 698, "eminent": 984, "mccarthy": 1167, "1958": 5086, "dummy": 694, "quiz": 7041, "marx": 1300, "irritated": 3182, "##cho": 15132, "bet": 9465, "compliant": 2608, "tracked": 1999, "trainee": 1512, "mentor": 2784, "hosted": 6500, "corporate": 19368, "participating": 6696, "homeland": 3866, "guard": 12190, "enhanced": 6879, "extension": 19499, "professionals": 22764, "assets": 20423, "employers": 19277, "nevertheless": 3860, "vocational": 2709, "institutes": 2749, "newly": 11550, "reminder": 4378, "##box": 16830, "topic": 18312, "focused": 13553, "busy": 8099, "schedules": 5879, "patrolling": 189, "tactics": 2591, "firearm": 1844, "terrorism": 2142, "pertaining": 5413, "complement": 5806, "seal": 17413, "foreword": 336, "memory": 26294, "sensations": 3754, "multimedia": 2221, "comprised": 8115, "connects": 11375, "command": 24821, "walking": 21531, "blinking": 1035, "perceptions": 1651, "controls": 18485, "involuntary": 4859, "interpreter": 1540, "depth": 22236, "divisions": 6082, "ear": 29235, "relating": 12864, "profits": 6159, "accounting": 19494, "decor": 5059, "hannibal": 641, "1839": 1220, "railways": 869, "bodies": 21887, "realise": 990, "##placed": 687, "atmosphere": 23431, "transactions": 11718, "corporations": 6252, "casual": 6271, "superstar": 2510, "propaganda": 1295, "wears": 3727, "wholesale": 5921, "##media": 4661, "tire": 9723, "compatible": 9376, "continually": 4263, "conditioned": 1710, "indo": 5349, "campaign": 14506, "bog": 3891, "cubic": 12553, "computers": 15780, "eternal": 2264, "eat": 76204, "aspect": 11769, "##rina": 1436, "occupation": 7973, "collin": 850, "6th": 6991, "sustained": 5241, "1970": 9983, "283": 1732, "universities": 9914, "dallas": 11905, "enrollment": 9764, "richardson": 1500, "brook": 3205, "##haven": 916, "162": 2605, "156": 4075, "mia": 2767, "435": 2820, "##22": 9697, "214": 2627, "##py": 19458, "fuel": 34102, "##30": 13664, "1832": 1270, "hampton": 2633, "graph": 13709, "233": 2331, "173": 2146, "io": 11579, "remotely": 1881, "mentioned": 22703, "literally": 14136, "electronics": 7028, "sensors": 4271, "vehicles": 24902, "connected": 30441, "networking": 5394, "enable": 15662, "embedded": 5474, "##press": 18252, "bell": 15530, "ticket": 17991, "notification": 7260, "push": 18382, "geo": 10755, "promising": 2505, "organized": 14532, "trillion": 4947, "staggering": 1804, "enables": 10422, "experts": 20725, "threat": 9806, "insufficient": 4076, "regulation": 13150, "incentive": 2921, "reducing": 16379, "driven": 11666, "behaviors": 7299, "efficient": 17686, "integration": 6947, "animation": 5878, "nyc": 3849, "vet": 16322, "differently": 8178, "peck": 1293, "studios": 6661, "specialist": 14293, "321": 2106, "supervisor": 3912, "fortunate": 1384, "fantasies": 361, "portfolio": 7196, "necessarily": 14616, "negotiate": 3642, "hourly": 22075, "compensation": 19892, "exempt": 9617, "stabbing": 1364, "burning": 23256, "potential": 48821, "trigger": 11926, "distinct": 19718, "aching": 2120, "ign": 8248, "precautions": 4072, "snapping": 1076, "careful": 12038, "##mable": 4031, "flame": 6007, "finger": 18326, "forcefully": 587, "gap": 10917, "leaving": 21083, "comfortably": 2847, "lighter": 9907, "##yd": 7361, "unbearable": 586, "##sor": 7729, "burnt": 2273, "strongest": 5510, "swollen": 12019, "tingle": 370, "roasted": 5415, "gloves": 4367, "till": 10297, "teen": 7593, "washing": 8559, "nothing": 37154, "quit": 8054, "tried": 19835, "nick": 7090, "##ashi": 1051, "tiny": 22543, "vinegar": 13785, "wearing": 12821, "chili": 5381, "trick": 7755, "##ably": 11859, "suitable": 14178, "bucket": 5355, "ivy": 3590, "solvent": 7057, "poison": 7539, "rarely": 20647, "medicines": 13526, "soap": 14724, "##lit": 10622, "feeding": 15273, "whatever": 18008, "##sle": 4402, "solids": 5203, "pound": 28242, "ounce": 28722, "nutritional": 14143, "rice": 21320, "evening": 14486, "mix": 40896, "hungry": 4065, "breakfast": 12941, "dinner": 12763, "infants": 10256, "carrot": 9232, "totals": 2867, "scoop": 3890, "babies": 19365, "merit": 3034, "hung": 2759, "mornings": 1885, "temperament": 2021, "vegetable": 16580, "meals": 15558, "fruit": 38612, "premature": 4787, "##urity": 1379, "follows": 27017, "mon": 10486, "appetite": 11096, "rough": 14409, "cues": 1401, "illegal": 12030, "posts": 19124, "respect": 15758, "encourages": 3419, "thoughtful": 1238, "offensive": 5048, "##rate": 9589, "reviewed": 9263, "advertisement": 8658, "prof": 5306, "contents": 18539, "opinions": 5891, "constructive": 1436, "competitor": 2238, "suv": 5532, "compact": 12077, "lex": 3285, "##ability": 15087, "##si": 21903, "noting": 2420, "##hip": 11060, "dealers": 9200, "##nction": 4054, "mal": 21101, "scored": 5163, "##fu": 16918, "defects": 7204, "hobby": 2933, "owning": 3023, "retired": 8144, "suddenly": 10105, "sedan": 3309, "274": 1575, "mazda": 982, "sleeper": 970, "liter": 12428, "picks": 4565, "##eed": 2937, "ultimate": 12532, "drivers": 18268, "##mot": 6309, "harsh": 6821, "audi": 2135, "volkswagen": 2000, "suzuki": 821, "anonymous": 8355, "departure": 8492, "tying": 1675, "chevrolet": 4068, "##terol": 22658, "ld": 7748, "traction": 2565, "soldier": 5311, "root": 33139, "vr": 3519, "##oot": 3389, "android": 15594, "sony": 4246, "pc": 36586, "tailor": 2295, "xp": 10477, "jail": 13958, "##break": 1826, "wise": 9386, "player": 37607, "seam": 7285, "##lessly": 2183, "repairs": 8043, "modify": 6533, "fortunately": 5258, "universal": 15796, "a2": 5216, "plunge": 2295, "allow": 72458, "lets": 14042, "smartphone": 9731, "linux": 5225, "exploits": 844, "launcher": 1167, "font": 7388, "mirror": 7285, "download": 40713, "reality": 18184, "recalls": 1392, "walked": 3680, "##world": 3447, "knew": 10202, "forty": 4782, "##ally": 26160, "audience": 10972, "scheduled": 13146, "##awa": 2908, "attracting": 1712, "fair": 26556, "lineup": 3482, "performers": 2279, "diverse": 13884, "bethel": 596, "narrows": 1270, "shops": 8943, "southwest": 15521, "lined": 5989, "##burg": 9110, "ventures": 1343, "decorated": 2255, "oversaw": 431, "burt": 956, "##feld": 2012, "57th": 298, "lang": 3711, "productions": 3052, "curtain": 2366, "oddly": 840, "miami": 10953, "rosen": 1191, "financed": 1540, "joel": 2420, "roberts": 2899, "promoter": 1791, "dye": 8238, "##oo": 8098, "lone": 3663, "cabin": 4811, "boutique": 2333, "retreat": 3505, "cozy": 1498, "rustic": 1685, "performer": 2667, "richie": 767, "altitude": 6517, "judgment": 10131, "gratitude": 955, "protest": 3032, "##escence": 828, "recognizing": 2540, "##qui": 26308, "assent": 561, "negative": 37030, "psychology": 12866, "faith": 9242, "##ply": 17524, "fails": 6475, "resist": 7721, "rests": 2715, "##ditional": 1772, "attraction": 6411, "ourselves": 4081, "consistently": 6947, "individually": 4970, "receiving": 18369, "sponsor": 3811, "infrastructure": 7692, "supporting": 14172, "responsibilities": 10580, "manner": 19274, "deployed": 2499, "environments": 9220, "dei": 2975, "ben": 23537, "logic": 5889, "overlooked": 2520, "willingness": 1425, "consciously": 879, "activate": 8340, "methodology": 3794, "deploy": 2950, "barack": 4405, "ceremony": 8563, "reads": 5362, "obama": 13772, "succeeding": 1016, "28th": 2634, "remarks": 1773, "mueller": 711, "fbi": 4278, "preparing": 10426, "cartoons": 1251, "reportedly": 4724, "nominate": 802, "##pire": 8675, "briefing": 1023, "instincts": 757, "presidents": 5161, "##uch": 4775, "rein": 6481, "essentially": 14797, "surveillance": 2884, "unto": 2131, "capitol": 4351, "jr": 15658, "brien": 883, "lawyer": 10426, "jim": 9362, "1960": 9113, "scholar": 2034, "bridge": 18507, "appointed": 9146, "directors": 7970, "holdings": 3502, "##ulating": 4988, "rumors": 3195, "operations": 27791, "sworn": 2566, "outgoing": 2218, "nomination": 3124, "nominated": 5150, "dietary": 15813, "supplement": 18418, "magnesium": 12825, "supplements": 17161, "##cco": 10836, "310": 4532, "##ach": 14799, "##bers": 5598, "squash": 5632, "##cum": 9791, "nuts": 16049, "420": 4298, "beans": 20237, "butter": 29340, "fortified": 3779, "consume": 15888, "risks": 14467, "realize": 9787, "bone": 54594, "##mia": 15778, "##stream": 10587, "yo": 24544, "415": 2024, "##gur": 18938, "dried": 16042, "gorgeous": 4033, "bowls": 2563, "berries": 5847, "nutrition": 26354, "gran": 11308, "topping": 4181, "vega": 4842, "##tose": 9951, "lac": 18647, "reviewing": 2878, "explanation": 12157, "thieves": 1228, "immediately": 34387, "##wer": 5681, "una": 12573, "mistakes": 4254, "enrolled": 7830, "nonetheless": 2351, "explaining": 4227, "describing": 6803, "protecting": 7362, "notices": 2799, "denied": 4942, "submitted": 14936, "##mit": 14342, "redesigned": 1241, "billed": 3595, "providers": 18290, "owes": 2038, "hairs": 5409, "strokes": 4421, "mustache": 441, "##ving": 12422, "mixture": 32457, "toward": 27459, "unwanted": 6188, "facial": 10343, "downward": 4329, "adhere": 4905, "##rita": 11484, "##isance": 1605, "cotton": 14236, "##zers": 3326, "lasts": 16201, "nostrils": 1350, "stick": 24227, "pops": 2948, "react": 12257, "##icle": 7063, "routines": 1534, "##creen": 2915, "##sight": 2633, "##onal": 8076, "suns": 3679, "hurry": 1585, "##how": 5298, "##ache": 12005, "##sure": 4285, "stain": 9838, "makeup": 6998, "##uck": 4213, "##lation": 12674, "##lysis": 4087, "##pi": 29390, "faded": 1090, "corners": 5220, "massage": 7619, "tomatoes": 10170, "tomato": 9242, "rub": 15476, "reduced": 27324, "juicy": 3054, "gently": 12815, "##folia": 2716, "ugly": 2489, "jazz": 6001, "##tore": 2463, "##bank": 3826, "mil": 7088, "unemployed": 2983, "1935": 4080, "215": 3738, "402": 1911, "dakota": 7890, "ethnicity": 4104, "household": 21977, "192": 3266, "assaults": 666, "murders": 1672, "theft": 6126, "rape": 3306, "robber": 724, "328": 1965, "245": 2725, "prizes": 2375, "1200": 5788, "pie": 9726, "crash": 7832, "aug": 18145, "mackenzie": 816, "sd": 9930, "tornado": 4081, "206": 3553, "chiefly": 4097, "cervical": 9603, "ax": 11124, "##illa": 12901, "palma": 1435, "dorsal": 3965, "flex": 10121, "##rica": 3784, "##eous": 9519, "##vate": 6247, "##orum": 750, "abd": 3580, "poll": 12298, "carp": 6506, "conducts": 2845, "signals": 13785, "torn": 4637, "ripped": 1372, "stretched": 4151, "sends": 7199, "print": 33570, "mayo": 9069, "##rac": 13004, "##hia": 1931, "##aneous": 7884, "medial": 5373, "##cut": 15152, "##cap": 7250, "wrap": 13844, "radial": 3137, "widening": 948, "stretch": 13504, "forced": 11557, "predicting": 1489, "##twined": 887, "weakness": 17044, "messages": 19434, "arms": 23159, "explained": 11131, "correctly": 13092, "tricks": 4436, "ads": 7801, "##gut": 548, "mayer": 974, "oscar": 6733, "wiener": 303, "promotion": 6724, "andy": 4250, "ali": 13797, "famously": 1730, "fisherman": 1176, "praises": 357, "##ttle": 2348, "bologna": 793, "singing": 6970, "acclaim": 1049, "wei": 4315, "hints": 2566, "##pose": 4007, "##ule": 12166, "jo": 19046, "##die": 3194, "sings": 2936, "kid": 9089, "cute": 5477, "141": 3910, "##dog": 3470, "eric": 6475, "consulted": 1144, "entrepreneurs": 1924, "lamb": 8372, "workshops": 1633, "lectures": 1268, "taught": 8438, "andrew": 9628, "##ya": 17982, "consultant": 5242, "developer": 6867, "amphibious": 597, "deployment": 3296, "readiness": 2489, "oceans": 7688, "constant": 24749, "fleet": 6229, "285": 2623, "flexibility": 8628, "assignments": 2644, "admiral": 1626, "combat": 11028, "infantry": 2249, "submarines": 767, "embarked": 703, "allies": 4373, "exercises": 10273, "drilling": 3492, "soldiers": 10114, "##firm": 2854, "##af": 16455, "norfolk": 2212, "promise": 7137, "robe": 820, "debut": 11359, "bryn": 482, "brady": 3482, "hammer": 5771, "##ku": 9036, "yu": 8347, "siam": 921, "boxer": 2059, "distinctive": 9476, "photographer": 3166, "shaved": 785, "rocky": 8449, "1944": 3988, "##iano": 1192, "maintained": 11183, "marriages": 1817, "##60": 10090, "divorce": 12923, "adopting": 1984, "gilmore": 557, "honor": 14747, "broadway": 4867, "##opsis": 2779, "syn": 14332, "246": 1830, "1920": 5752, "##25": 10196, "##eses": 1289, "##ments": 8717, "portrayal": 1623, "cecil": 944, "rodgers": 917, "blockbuster": 1388, "demi": 2454, "birth": 55118, "boris": 565, "##ovich": 599, "swiss": 5394, "##yev": 113, "##ov": 10667, "##lag": 1934, "##ich": 5636, "vlad": 437, "##ido": 6259, "##ivo": 4434, "##nne": 7386, "convinced": 2505, "refused": 3904, "rogers": 3307, "terrible": 4248, "625": 2328, "shave": 1959, "##raf": 3730, "horror": 4839, "costume": 2637, "curly": 1825, "irene": 723, "ry": 4242, "settled": 8096, "dominate": 2289, "culminating": 641, "fringe": 2563, "rehearsals": 244, "bald": 3981, "masked": 735, "tease": 816, "outright": 1390, "malone": 723, "khan": 2727, "hub": 10984, "deborah": 1108, "kerr": 1056, "##\u00f0": 2337, "paternal": 1579, "forgotten": 3325, "maru": 543, "1910": 4233, "featured": 13589, "jules": 698, "grandfather": 4292, "subsequent": 9982, "wig": 2842, "blu": 7376, "gonzales": 351, "##nder": 4798, "foe": 1841, "protagonists": 520, "##oney": 978, "speedy": 1283, "flip": 7875, "flopped": 105, "sylvester": 786, "bullet": 3560, "gallery": 7566, "shorts": 2379, "##ffy": 1247, "tunes": 1512, "mouse": 12120, "mice": 5667, "mexican": 12409, "starving": 752, "breeze": 3807, "guarded": 775, "1955": 5579, "ah": 30659, "deadline": 7937, "##run": 4452, "simon": 4663, "eyed": 2612, "animated": 6642, "bros": 3286, "cats": 20393, "beloved": 5016, "cry": 6225, "filmmaker": 1240, "##ario": 982, "eugen": 812, "bolivar": 445, "ladies": 3780, "superhero": 2799, "maybe": 21155, "blanc": 2091, "pratt": 1045, "voiced": 2561, "##ele": 11944, "cartoon": 3590, "animator": 779, "##wley": 429, "melodies": 540, "mer": 19252, "endowed": 639, "recurring": 5134, "proves": 1977, "##val": 8601, "##rous": 4213, "invincible": 277, "interrupt": 1804, "serena": 1021, "##vert": 12740, "comical": 429, "carmel": 1380, "stereo": 4807, "1990s": 7310, "##type": 8105, "racist": 1462, "banished": 335, "worries": 1698, "##ock": 12576, "intellectual": 7112, "grin": 1201, "onwards": 1361, "##mbre": 1035, "pleased": 4445, "remind": 2455, "favourite": 3917, "gigantic": 1111, "directed": 19391, "mixing": 8732, "descends": 986, "pouch": 3867, "quadrant": 1998, "ascending": 2311, "inferior": 6950, "appendix": 4391, "##rmi": 3761, "anatomy": 11464, "valve": 16027, "##ough": 4849, "##eca": 3449, "variation": 13212, "##xi": 23395, "coiled": 1409, "distal": 4200, "##ista": 4035, "##sten": 5112, "strengthen": 6509, "je": 12124, "discussion": 16530, "grouping": 3068, "arrangements": 4790, "traditionally": 12076, "conventional": 12710, "hugely": 1220, "disrupt": 4826, "fame": 11536, "ag": 32217, "aqua": 5851, "proceeded": 711, "turmoil": 728, "1992": 11334, "##ype": 2692, "survive": 14122, "merged": 3005, "merger": 3100, "acquisitions": 1335, "mergers": 786, "continuing": 10869, "technological": 3578, "##dust": 1123, "attention": 31823, "attracted": 4687, "schultz": 452, "deter": 11407, "attitudes": 3381, "##\u00d7": 1594, "shared": 19794, "##dition": 1717, "##ood": 2179, "au": 22697, "##rba": 6035, "fill": 41703, "promoting": 5882, "##dents": 888, "harvard": 6581, "breaking": 16155, "sustaining": 1431, "christensen": 273, "shakes": 2378, "separates": 5302, "clayton": 1498, "##ons": 33819, "strains": 6332, "blade": 8304, "biceps": 2509, "attach": 13062, "socket": 5401, "tenderness": 5862, "affecting": 12614, "numerous": 23567, "deeply": 5497, "##lage": 9105, "##eration": 5731, "##gen": 35466, "col": 27020, "obvious": 13071, "manifest": 4519, "attachment": 8613, "strain": 12844, "evaluated": 5248, "tearing": 2466, "persistent": 8392, "##cit": 9672, "eli": 7790, "##inge": 3516, "hawkins": 956, "nee": 4141, "passive": 6259, "abduction": 1001, "##iating": 3000, "temporal": 4089, "uncommon": 10847, "acute": 25983, "establishing": 5696, "##ulo": 12760, "##pathy": 10109, "##dic": 9900, "authorized": 11375, "delegate": 2834, "bail": 4028, "monetary": 5333, "issuing": 3453, "explicitly": 2554, "revoked": 1154, "filing": 23413, "kb": 4400, "quarterly": 3907, "##uring": 5018, "##itated": 1396, "absent": 5022, "mentally": 2892, "signing": 7618, "accountant": 3121, "trusted": 9030, "microsoft": 36252, "excel": 20166, "viewing": 9557, "viewer": 3182, "gasoline": 8267, "cents": 10882, "saving": 16605, "trading": 13823, "dioxide": 21466, "assigns": 1691, "greenhouse": 4807, "tail": 16595, "comparable": 6570, "##low": 10220, "relates": 5381, "##att": 6998, "electricity": 19419, "versus": 9840, "assume": 15407, "kw": 8099, "##gall": 583, "intend": 3493, "charging": 7426, "complicated": 11129, "administered": 11135, "##dro": 8151, "##hine": 2381, "##hone": 1589, "##rdial": 3734, "##iate": 6225, "##ously": 2228, "manufacture": 8417, "##don": 17067, "##oca": 19052, "intra": 21169, "ox": 20312, "##phine": 4677, "derivatives": 2979, "##int": 24714, "##nist": 5309, "narcotics": 1463, "##estinal": 18343, "##rco": 5714, "hospitalized": 1639, "transmission": 16409, "##za": 14860, "sulfate": 4829, "mortality": 5170, "mood": 13209, "##dation": 4647, "##pati": 18650, "##head": 12073, "##had": 4107, "##one": 25709, "heroin": 3462, "illicit": 1476, "##pod": 2386, "poppy": 2102, "##nya": 971, "abundant": 10147, "recreational": 7571, "opium": 1992, "mandal": 932, "extract": 12662, "##ni": 42610, "effectively": 14813, "compounds": 21121, "alleviate": 3472, "moran": 526, "institution": 16247, "stephens": 669, "1801": 1179, "417": 1402, "callahan": 241, "325": 7826, "shack": 1450, "racial": 5756, "337": 1591, "146": 3618, "209": 2525, "930": 2037, "extraction": 5617, "forestry": 1269, "quarry": 1358, "hunting": 10900, "southeastern": 6170, "vicinity": 1811, "240": 11802, "snyder": 933, "settler": 690, "deemed": 4613, "craft": 9397, "constitutes": 4231, "##tment": 2677, "##ves": 11842, "funded": 5691, "determination": 7693, "dir": 1700, "wages": 17467, "dl": 10903, "maintains": 6940, "trades": 3854, "payments": 28035, "apprenticeship": 1529, "interpreting": 1966, "carrie": 1638, "statute": 7844, "expressed": 15040, "##ption": 5095, "intention": 4052, "persons": 20464, "seminar": 1254, "lit": 13093, "phil": 7314, "##hil": 8584, "selective": 7190, "incompatible": 1039, "##gr": 10165, "##morphism": 1627, "authors": 7757, "trace": 10083, "##gm": 11348, "ionic": 5058, "deep": 53643, "lil": 4727, "subset": 3334, "radius": 7120, "##chemical": 6026, "poorly": 4839, "enriched": 1907, "thickness": 12726, "celestial": 2287, "mantle": 5151, "sink": 8926, "readily": 8000, "primitive": 3674, "##lice": 2685, "pg": 4128, "analyses": 2156, "##ium": 22426, "suite": 9327, "undergo": 6517, "float": 6121, "affinity": 2025, "arid": 2803, "##lis": 10604, "ions": 11334, "configuration": 10686, "##ron": 19810, "pi": 30378, "##valent": 6339, "bonding": 5154, "phosphorus": 5269, "##rod": 6565, "dissolved": 8821, "waters": 13478, "restricted": 8266, "regarding": 23184, "ratios": 3933, "formerly": 13780, "boulevard": 2992, "##atin": 7060, "announcement": 4983, "buffet": 2629, "restaurant": 18259, "memorial": 10054, "mayor": 5986, "##rral": 833, "promenade": 439, "underway": 1758, "sf": 5030, "amend": 3217, "landing": 6442, "occupies": 2961, "luna": 1359, "tier": 6850, "150": 46674, "acres": 15331, "acre": 14029, "provisions": 8032, "horn": 5990, "##flower": 8547, "congressman": 1455, "bounded": 2557, "##vd": 4417, "aggressive": 7136, "kept": 22207, "quo": 5499, "##tie": 4153, "thirds": 5854, "remainder": 5061, "divide": 25601, "dividing": 7423, "integers": 1411, "divides": 5022, "integer": 3075, "euclidean": 446, "variables": 12556, "210": 7664, "seeing": 13799, "namely": 4867, "jimmy": 3808, "##kos": 1177, "chang": 1515, "pete": 3061, "teacher": 19660, "uploaded": 2251, "##ih": 3591, "lcd": 2909, "susan": 4217, "abuse": 34823, "##ient": 7130, "reciprocal": 1669, "##hp": 2807, "##rt": 16350, "thumbs": 5899, "howard": 6137, "##lous": 1979, "abs": 11757, "ts": 19717, "approx": 5954, "##bh": 1792, "persist": 5580, "organisms": 28794, "probable": 2497, "##ivity": 13027, "tertiary": 2276, "acquired": 13608, "declines": 2018, "tre": 8041, "fluorescent": 2166, "##agi": 5192, "chan": 4847, "antibody": 5662, "plasma": 14213, "##eal": 7622, "##athi": 2005, "manifestation": 3489, "##que": 22770, "benz": 9031, "##llin": 5488, "crystalline": 4225, "##56": 4299, "criteria": 17982, "celebrations": 2271, "##rook": 474, "nebraska": 6243, "##lb": 10986, "anytime": 6587, "pricing": 14529, "##ivated": 1154, "oakley": 460, "optics": 1184, "dea": 3748, "az": 13877, "##air": 5861, "shire": 899, "omaha": 2260, "ideally": 5600, "denver": 7615, "situated": 15908, "coco": 1925, "rail": 8168, "tracks": 7517, "##hem": 3661, "##lip": 7463, "hamlet": 2130, "gear": 11475, "melbourne": 3180, "306": 1603, "##bury": 5430, "239": 2169, "sydney": 5063, "poems": 3976, "judith": 929, "poet": 5023, "##haw": 2416, "twin": 9847, "anne": 7645, "poetic": 1768, "eighteen": 2267, "susanna": 308, "daughters": 3634, "grammar": 6940, "avon": 1386, "shakespeare": 5880, "##tist": 6391, "##hood": 3987, "arden": 731, "stratford": 853, "lasting": 11491, "birthplace": 2639, "##nets": 1070, "narrative": 4278, "playwright": 1417, "161": 3797, "ham": 16013, "##lowe": 1476, "twins": 4519, "tradition": 11367, "church": 21966, "buried": 6162, "drew": 4609, "destined": 1248, "nobility": 1292, "elizabeth": 10563, "farmer": 4443, "baptized": 705, "glove": 1923, "spite": 2363, "converted": 13364, "1847": 1423, "##lius": 621, "baptism": 1021, "trinity": 2183, "register": 20997, "##lie": 8225, "prosperous": 1271, "presumed": 1553, "##table": 6490, "atlas": 2570, "barns": 1049, "massachusetts": 17381, "oak": 10254, "tis": 1979, "nan": 4034, "##oli": 13990, "bluff": 1834, "##tucket": 618, "##rating": 2450, "cod": 8211, "##64": 5171, "##53": 4515, "yarmouth": 152, "gateway": 6230, "##har": 14048, "reply": 10135, "acknowledging": 602, "##xed": 2425, "commissioners": 1746, "superior": 17290, "receipt": 6528, "203": 4559, "cobb": 2284, "exploring": 4252, "cum": 5934, "seeking": 12153, "copy": 36790, "deeds": 2660, "clerk": 11106, "registry": 7098, "253": 2100, "##static": 5521, "sucks": 1203, "generates": 5102, "smoke": 19238, "plates": 12217, "cleaned": 4565, "collector": 3905, "airborne": 2540, "drives": 9049, "cleaner": 8447, "dirty": 6163, "collectors": 2421, "##ators": 2417, "electrode": 3651, "minus": 7322, "discharge": 15150, "migrate": 3042, "##rip": 4451, "manually": 6699, "filters": 6095, "washed": 4097, "automatic": 13961, "fossil": 7893, "##ash": 5510, "ash": 12481, "fuels": 5824, "emission": 3602, "fu": 16520, "cake": 9880, "##mes": 16984, "cement": 7683, "pulp": 4581, "exhaust": 6848, "pet": 31066, "lime": 8434, "mist": 4592, "efficiency": 14269, "reduces": 13053, "ignited": 777, "combustion": 5995, "allowing": 19769, "##burn": 10730, "##gative": 904, "##ots": 9919, "shall": 21569, "rosemary": 3086, "stirring": 5030, "ingredients": 33925, "thy": 12316, "oven": 35053, "mushrooms": 5646, "garlic": 19204, "remaining": 22974, "stir": 16185, "onion": 12182, "##sley": 5658, "pepper": 29291, "flour": 16160, "gradually": 12876, "juice": 32554, "cooking": 38892, "translucent": 2338, "pour": 16853, "fingertips": 1803, "criminals": 1956, "puts": 9720, "subscription": 9387, "businesses": 28725, "1899": 2215, "gathers": 1039, "analytics": 2966, "leadership": 14454, "emerging": 4820, "continents": 4652, "##wire": 4375, "delaying": 807, "fined": 830, "lawsuit": 5275, "violating": 1297, "morgan": 6081, "predominantly": 4847, "##ther": 10674, "##nga": 4357, "declined": 4291, "butler": 2588, "2020": 4164, "fluctuations": 2239, "690": 1984, "chamber": 10143, "##uba": 9855, "commerce": 8991, "partnership": 9924, "startup": 4902, "maker": 7306, "mac": 29573, "rpg": 885, "dreams": 8302, "iphone": 23786, "masterpiece": 1792, "interface": 13276, "makers": 4805, "##bie": 3493, "verified": 4884, "script": 8632, "playstation": 3238, "ps": 24012, "strictly": 5539, "notable": 9050, "##lining": 2315, "##kawa": 385, "##jima": 242, "##ji": 6219, "accessibility": 2128, "##lated": 2749, "personally": 7326, "##jo": 12096, "believers": 884, "bat": 8149, "engine": 38553, "installment": 4261, "retro": 6236, "90s": 2347, "137": 3788, "##ush": 3238, "spectator": 625, "poorer": 945, "increasingly": 8277, "richer": 1531, "progressively": 1775, "significantly": 19733, "ethanol": 4520, "chemist": 3471, "##hyl": 13857, "vodka": 2619, "standardized": 5552, "devised": 1609, "apple": 34113, "##jack": 2598, "##entation": 7432, "##ar": 41842, "eighty": 1653, "190": 6952, "alcoholic": 7089, "chilled": 1840, "helm": 2703, "queen": 14704, "limb": 6725, "porter": 2571, "ann": 16311, "gene": 22836, "1895": 2300, "##ckle": 1805, "naturalist": 1315, "##osi": 12487, "wildlife": 9191, "1924": 2962, "paperback": 1196, "1863": 2703, "grace": 8051, "##bas": 4555, "##enberg": 1181, "geneva": 2197, "1875": 1734, "minister": 8776, "methodist": 1413, "wa": 24310, "conservation": 7512, "wetlands": 1792, "indiana": 14619, "bern": 3043, "##eck": 4382, "topped": 4626, "feminist": 1519, "##istic": 10117, "novels": 4094, "quotes": 9071, "ebook": 1982, "clean": 55491, "nano": 4293, "chip": 11870, "reader": 12854, "genuine": 5219, "illustrations": 1813, "supplied": 8026, "tap": 22673, "slot": 7307, "arrow": 10235, "inch": 45984, "##movable": 3186, "##ylus": 952, "cd": 20907, "camera": 15766, "nfc": 995, "hd": 18551, "display": 32284, "gb": 7154, "lt": 11887, "punch": 3682, "sizes": 26759, "purchasing": 10567, "sprint": 4767, "guy": 13476, "franklin": 9661, "newton": 5626, "outrageous": 1081, "benjamin": 4684, "chess": 1464, "humanities": 1559, "diplomat": 1083, "institutions": 12792, "abolitionist": 1118, "exhibition": 2901, "tickets": 16320, "parkway": 2284, "spanning": 2773, "nfl": 13142, "draft": 11263, "170": 8585, "boiler": 3035, "colonies": 8928, "josiah": 347, "chandler": 1233, "fight": 22211, "fathers": 2924, "##aga": 4936, "founding": 6564, "##bbies": 1045, "storms": 4466, "experiments": 4726, "lightning": 5819, "catching": 3853, "conducting": 5383, "fascination": 673, "proved": 5096, "invention": 6939, "excelled": 359, "profound": 3200, "endeavor": 1446, "##nged": 1826, "removes": 5930, "submit": 25332, "bankruptcy": 6615, "rip": 5152, "creditors": 2971, "negotiation": 1719, "technique": 18393, "##ete": 18409, "##quent": 6047, "accurately": 6489, "##fia": 1631, "definitely": 14438, "warning": 14014, "legitimate": 3962, "##uting": 1710, "suggesting": 2972, "conclusion": 8168, "democrat": 2828, "republican": 11819, "elected": 15001, "democrats": 3435, "senator": 6512, "##care": 12050, "kennedy": 7499, "ted": 4826, "##aca": 5728, "reconciliation": 1424, "originate": 4029, "nancy": 2828, "turned": 22750, "recall": 5395, "aka": 9067, "##ias": 6815, "##35": 7712, "democratic": 11455, "stripped": 1623, "deny": 2763, "faber": 308, "##wg": 1224, "dubbed": 2590, "aden": 10116, "widespread": 8744, "##bus": 6308, "partisan": 858, "contributors": 1763, "wishes": 4178, "vice": 16653, "voted": 5784, "##oda": 3961, "##makers": 4550, "##yas": 2413, "disclosure": 5135, "awe": 7571, "lobbying": 872, "organizations": 22740, "oppose": 1337, "##pel": 6942, "disclose": 2117, "requiring": 9207, "lace": 4721, "tunnel": 6697, "##ration": 14227, "extends": 11865, "forearm": 3654, "arises": 4757, "ring": 26202, "pinch": 5022, "develops": 13709, "##lav": 2814, "##avi": 9947, "trunk": 7916, "##lam": 15274, "ventral": 2302, "originates": 4954, "cords": 2888, "contributions": 14723, "##matic": 7847, "exiting": 1006, "incidence": 6261, "opposing": 3295, "accessory": 4070, "variations": 12092, "##lies": 3621, "arising": 3355, "precisely": 4466, "demonstrated": 5278, "rig": 6790, "jan": 21400, "honored": 3056, "sb": 4890, "columbus": 6428, "logistics": 3643, "##dc": 3848, "1785": 665, "calendar": 20957, "tuition": 15909, "utilizes": 3168, "thrilling": 987, "competitive": 15524, "excited": 6598, "classmate": 383, "holmes": 2112, "hunter": 5841, "journalist": 3457, "lecture": 2425, "chapel": 2750, "hamilton": 5678, "##lay": 7519, "gaul": 861, "athens": 3937, "intensive": 5737, "##open": 3000, "watershed": 1645, "recreation": 6398, "operated": 13515, "##tya": 980, "appoint": 2501, "sole": 13485, "##oper": 4610, "grants": 6788, "stakes": 1961, "agrees": 3131, "rights": 46637, "holder": 8386, "copyright": 12634, "afforded": 761, "violation": 6432, "publish": 3787, "infringement": 976, "literary": 7651, "recording": 13453, "reproduction": 8720, "artistic": 4635, "termination": 4463, "transaction": 14316, "sad": 6636, "beau": 3166, "##dened": 686, "bid": 8316, "nominee": 2203, "campaigns": 3196, "dynasty": 5626, "unfolded": 408, "funeral": 6316, "wilmington": 1590, "battling": 1387, "reed": 3772, "neil": 3299, "##ette": 4785, "eldest": 2004, "robin": 4818, "remembers": 1141, "##enas": 707, "spotlight": 2648, "stepped": 2125, "stood": 5017, "padua": 240, "anthony": 5539, "widow": 3137, "casket": 1126, "proudly": 2247, "battled": 616, "smiling": 1219, "kane": 1709, "invariably": 922, "lung": 21044, "pulmonary": 12158, "extreme": 19976, "lai": 2197, "detached": 1863, "##ail": 4275, "bruise": 2075, "vacuum": 9313, "hind": 6362, "separated": 13659, "impacts": 5282, "linked": 24684, "compromise": 4651, "##uising": 3808, "fractures": 6047, "isolated": 8193, "server": 27668, "fracture": 8557, "crush": 4298, "contiguous": 2376, "##logical": 6502, "controversy": 4081, "definitions": 23480, "fractured": 1669, "inward": 2760, "versa": 7050, "ambient": 2763, "disability": 18739, "##tub": 5005, "clumsy": 572, "##bella": 1442, "##agger": 1812, "headed": 6550, "##stead": 1103, "difficulties": 5017, "temporary": 18358, "sickness": 4830, "vertigo": 3223, "addressed": 5988, "##md": 8921, "cycles": 8657, "kinetic": 4069, "velocity": 8083, "##its": 4292, "##emia": 16935, "##ior": 3434, "##rator": 4382, "abnormalities": 5930, "ordering": 4899, "recognised": 2889, "suggest": 21882, "##yra": 1844, "vest": 5587, "##nor": 8003, "knee": 18715, "buck": 6396, "shifted": 2337, "weak": 15020, "##uma": 13855, "##arth": 1785, "##rosis": 6977, "muscular": 10254, "##kel": 8081, "cox": 3224, "##tism": 1691, "ter": 8949, "##use": 18219, "slowed": 1824, "##rill": 2962, "910": 2029, "370": 3665, "rental": 20263, "harvey": 3332, "extinguished": 319, "investigators": 2545, "sheriff": 7760, "lincoln": 12111, "bumps": 5425, "##hand": 6903, "##lu": 38590, "northwestern": 3953, "##sb": 6293, "747": 1503, "440": 4316, "houses": 15836, "medina": 943, "devin": 569, "780": 2237, "jurist": 321, "jefferson": 8634, "alderman": 225, "475": 2310, "127": 4822, "rented": 2212, "171": 2141, "collar": 6192, "##igen": 4072, "hierarchy": 2803, "deficiency": 16949, "mas": 11814, "directs": 2292, "sustain": 4774, "behavior": 30631, "biology": 14661, "beliefs": 7258, "proposed": 14588, "intentions": 1643, "traits": 8606, "morton": 1089, "conditioning": 8079, "##ism": 44991, "actions": 20273, "##ists": 16005, "watson": 3386, "skinner": 564, "1878": 1347, "##cite": 4167, "collaborators": 346, "canonical": 708, "eleanor": 1273, "watt": 5937, "hypothesis": 4743, "motivated": 2799, "moods": 1066, "systematic": 4918, "subjective": 3401, "##gni": 3413, "##tions": 7540, "cognitive": 9038, "strengths": 4611, "failing": 4022, "weaknesses": 2423, "1849": 1297, "##lov": 2485, "premise": 2654, "studies": 40130, "motives": 991, "speculation": 2454, "ivan": 2175, "conclusions": 2756, "observation": 7003, "subconscious": 771, "##ffer": 4363, "damon": 1074, "danny": 2973, "shoes": 13162, "ken": 11205, "##hm": 4323, "qui": 13943, "roxy": 165, "exchanged": 2161, "merchandise": 4688, "owns": 7922, "shoe": 7575, "australian": 14626, "partners": 13893, "huntington": 2081, "surf": 5153, "##quay": 202, "sporting": 4062, "cypress": 1715, "defunct": 729, "clothing": 16440, "ties": 4711, "hop": 9466, "##oor": 3082, "1993": 11720, "fantasy": 5648, "##yre": 2621, "awesome": 7598, "wat": 1727, "rob": 6823, "##dek": 301, "disney": 17454, "japanese": 21171, "moody": 1218, "retiring": 1522, "##night": 1742, "acted": 2681, "ceo": 11159, "apparel": 2936, "logo": 10629, "predominant": 2309, "clerical": 1196, "positions": 17477, "veterans": 9451, "executives": 3634, "compensated": 1893, "alternative": 27453, "##48": 4859, "retain": 9321, "##riated": 1673, "issued": 28240, "##ws": 8564, "limitation": 3015, "##uance": 2826, "appropriated": 479, "delayed": 6337, "iss": 4649, "##app": 6455, "##active": 7998, "##15": 11144, "gaps": 3466, "surveys": 4211, "satisfactory": 1783, "titled": 7063, "adjustments": 4622, "unpaid": 3927, "##week": 3116, "fm": 7787, "guarantees": 3064, "intermittent": 3590, "affirmative": 1303, "accommodations": 3482, "pursuant": 3513, "authorization": 5587, "impairment": 5734, "contracted": 3421, "cease": 2807, "restart": 4881, "##rued": 2594, "placed": 34291, "vanderbilt": 1122, "certification": 21224, "eligibility": 10747, "emory": 723, "applies": 18484, "orientation": 6245, "qualifying": 7344, "overlap": 4721, "claims": 27215, "granting": 2018, "illustrated": 4420, "watts": 4732, "cent": 20816, "1500": 9468, "bulb": 8229, "##jou": 2542, "wah": 1811, "fixed": 28011, "dollars": 30054, "##ctric": 2499, "510": 3074, "expensive": 36874, "##sol": 9906, "grid": 7161, "##lta": 4013, "maintenance": 27034, "euro": 6735, "calculations": 7460, "##llation": 5626, "amplitude": 2555, "tone": 13492, "harmonic": 1285, "motions": 2568, "displacement": 3688, "instant": 13768, "urgent": 3525, "1947": 5535, "fundamental": 13355, "laureate": 612, "doom": 1387, "humanity": 3492, "nobel": 3156, "chaired": 354, "theoretical": 4437, "##raus": 621, "einstein": 2365, "judgement": 1516, "quran": 805, "muhammad": 1773, "prophet": 2541, "islamic": 3893, "instituted": 1162, "quota": 5757, "##oom": 1455, "similarly": 8568, "bulletin": 2472, "destruction": 7838, "magazine": 15534, "repeatedly": 4261, "correspond": 2814, "##just": 2086, "##ssi": 6979, "protests": 1367, "occurrences": 3815, "isolation": 3721, "metaphor": 3248, "politicians": 2422, "##mism": 750, "menacing": 370, "gloom": 875, "nationalism": 1167, "graphical": 2942, "threats": 4850, "##ople": 4469, "existent": 1303, "countdown": 1458, "advised": 5186, "sponsors": 2183, "catastrophe": 803, "analogy": 1571, "nagasaki": 859, "hiroshima": 1249, "ominous": 469, "tubes": 10185, "scuba": 1262, "##drum": 2234, "diving": 3138, "##tern": 4112, "noticeable": 5014, "ears": 13578, "##fen": 7241, "susceptible": 6252, "ups": 11627, "swimmer": 1156, "ringing": 2330, "anthropology": 1719, "linguistic": 2630, "backbone": 4073, "anthropologist": 1017, "##ning": 18764, "##pin": 5734, "##duction": 18836, "inherited": 9573, "genetically": 4443, "aspects": 16530, "##tology": 2553, "prima": 1516, "boulder": 1824, "seeks": 4560, "backdrop": 1537, "beings": 5314, "societies": 4036, "norms": 2342, "grounded": 1664, "primate": 2199, "subjects": 8963, "evolutionary": 3645, "extending": 7074, "cornerstone": 1809, "adams": 6513, "presidency": 4284, "abigail": 901, "1792": 1243, "1800": 6136, "winslow": 350, "overseen": 559, "dismantled": 282, "reconstruction": 3948, "truman": 2579, "harry": 9508, "1952": 4411, "reagan": 3584, "hillary": 3277, "martha": 2595, "##lynn": 550, "ronald": 4527, "laura": 3552, "clinton": 8451, "##ship": 4950, "ceremonial": 1606, "michelle": 3524, "inauguration": 1360, "niece": 1247, "buchanan": 999, "harriet": 1119, "hostess": 754, "lane": 7416, "undergoing": 3282, "renovations": 963, "chosen": 14195, "unfinished": 1175, "1791": 1791, "theodore": 2667, "palace": 5073, "roosevelt": 7505, "presidential": 12045, "313": 1791, "560": 4076, "##sho": 4410, "mule": 1709, "refuge": 1809, "municipal": 7640, "##ennial": 861, "weighs": 11257, "moreover": 4277, "decomposition": 2240, "det": 12435, "hormone": 29349, "aiding": 909, "##ification": 9048, "##ception": 5644, "prepares": 3546, "graf": 4168, "bleeding": 23895, "##mur": 5019, "heaviest": 2328, "kilograms": 4850, "vein": 10471, "protects": 11229, "coat": 20241, "insides": 755, "surprise": 9476, "##ters": 12724, "survival": 10648, "flesh": 8841, "##udge": 2194, "mammals": 11637, "lia": 5457, "internally": 2607, "wikipedia": 21467, "meter": 16000, "spraying": 1517, "##space": 1224, "aero": 11327, "chambers": 6463, "replacement": 27425, "lin": 10109, "drying": 6733, "dish": 25493, "fits": 9925, "purse": 2023, "##wash": 5695, "opt": 21356, "delivering": 5745, "droplets": 2464, "##piece": 4609, "fda": 13713, "substantially": 4314, "pep": 5953, "sept": 13358, "##can": 15518, "engulfed": 430, "cortex": 6644, "##pore": 1096, "degraded": 837, "##get": 6927, "sas": 3744, "##ative": 16688, "spores": 3783, "dorm": 2299, "maintaining": 12934, "##oso": 9138, "dip": 20379, "##lini": 1404, "##mina": 7575, "characteristic": 15260, "exhausted": 1670, "gram": 15685, "favored": 2353, "exploit": 1861, "##tile": 4412, "##aceous": 2021, "resides": 3293, "termed": 6504, "reproductive": 9613, "##fish": 13754, "possess": 7377, "##pis": 2161, "layers": 20392, "triggered": 4920, "comprises": 6638, "bacterium": 6629, "consulting": 5624, "managers": 13067, "collaborate": 1487, "subsp": 1237, "hacked": 610, "crypt": 4298, "networks": 13396, "##ography": 7010, "enterprises": 3227, "establishments": 1772, "factories": 2691, "graduates": 5985, "meaningful": 4918, "certificate": 20835, "cyber": 4120, "firms": 8259, "consultants": 3004, "gaining": 5299, "administrator": 8195, "analyst": 6713, "auditor": 4795, "practitioner": 6736, "handy": 7477, "license": 43010, "insist": 1316, "airports": 7335, "stadiums": 703, "##imum": 4772, "assessments": 3628, "reaper": 733, "predator": 2469, "pilots": 3444, "drone": 1452, "unmanned": 652, "cnn": 5815, "expanded": 9347, "aviator": 777, "commitments": 1068, "650": 7454, "shortage": 2815, "guys": 9460, "hopeful": 1054, "tech": 16663, "picnic": 3020, "airspace": 583, "drones": 875, "willing": 9076, "tags": 9378, "expectation": 1917, "careers": 7957, "staring": 1063, "mothers": 5410, "##stick": 3192, "##gg": 13011, "basement": 7048, "screens": 7695, "dimly": 164, "somewhere": 12398, "armed": 8501, "fewer": 15703, "mandate": 2415, "281": 2058, "patrols": 323, "missions": 3676, "fulfill": 4378, "cree": 720, "flown": 1897, "trap": 7948, "cracks": 4678, "disregard": 1674, "misunderstanding": 1244, "##mas": 10386, "chad": 2385, "stone": 31569, "wouldn": 10426, "listened": 1038, "shrewsbury": 281, "jade": 1682, "matthew": 5069, "weighed": 3919, "##rra": 4789, "tina": 1451, "bangor": 427, "chen": 1690, "##bee": 4172, "graham": 3541, "sisters": 4901, "luc": 2805, "prayer": 3312, "communion": 579, "##ita": 9911, "gal": 8056, "gemma": 234, "collapsed": 1949, "glad": 4752, "##gled": 997, "##ttering": 771, "heap": 1962, "vibrations": 2151, "rubble": 470, "avila": 268, "sanchez": 594, "teresa": 1892, "vila": 571, "spain": 17273, "wil": 5778, "amanda": 1976, "catholic": 7807, "joachim": 196, "nazareth": 338, "hannah": 1643, "bethlehem": 713, "hebrew": 11013, "galilee": 505, "sacrifices": 696, "shepherd": 3010, "wholly": 2657, "550": 7472, "honour": 1954, "26th": 2412, "ruins": 2280, "##oit": 1353, "1797": 983, "##anne": 2304, "desire": 11874, "priest": 2858, "arnold": 2436, "talked": 3860, "grandmother": 3024, "slide": 14903, "diameter": 21830, "##eur": 8209, "##gement": 4345, "bulge": 3423, "##fan": 2725, "weaker": 2819, "restore": 11995, "weakened": 3569, "ami": 8176, "seriousness": 824, "scan": 16895, "valves": 7069, "##gram": 11917, "##card": 13575, "pounding": 1390, "enlarged": 7407, "##ciency": 4798, "##urse": 11382, "##dial": 2792, "305": 2762, "asking": 13733, "rider": 3542, "jd": 1998, "##nett": 1945, "dear": 7235, "replied": 2002, "legally": 11008, "visitation": 1628, "kansas": 12521, "decree": 1766, "modification": 4435, "enforcement": 13160, "##ducted": 3393, "electrically": 1865, "radar": 5389, "transmitters": 503, "warmth": 4497, "installations": 2993, "eventual": 1926, "shield": 6964, "metre": 3817, "arise": 8169, "##loh": 875, "##ncy": 9326, "mw": 2503, "khz": 930, "sweater": 1597, "##eres": 2903, "endless": 4117, "##gne": 4716, "packet": 4557, "quan": 4923, "##like": 6525, "##tized": 1214, "correspondence": 2637, "##ja": 14907, "1767": 580, "visible": 21340, "fires": 5204, "##for": 17044, "lamps": 2511, "centrally": 1945, "generators": 1938, "anybody": 2730, "unavailable": 3573, "steadily": 3131, "edison": 2074, "chestnut": 1884, "installed": 31137, "1870s": 870, "strung": 598, "generating": 4800, "convention": 11468, "wire": 21031, "conductor": 3553, "inducing": 1474, "engines": 9701, "generate": 13241, "practical": 15357, "volta": 1239, "crude": 5824, "alessandro": 282, "1831": 1113, "viable": 3467, "tal": 4323, "pile": 3894, "dynamo": 594, "dangers": 2960, "##take": 4444, "##worm": 9308, "cricket": 3195, "bugs": 5506, "straw": 7386, "chopped": 5934, "grapes": 5350, "spiders": 3414, "pill": 8212, "##berries": 7869, "worms": 6354, "stale": 1489, "pleasure": 6328, "##oop": 2272, "seemed": 6431, "crisp": 9815, "feather": 3220, "##birds": 3132, "##rift": 1905, "garden": 27111, "toast": 6117, "gulp": 467, "##eet": 4298, "berry": 4196, "bitter": 7449, "bushes": 1674, "##win": 3954, "vines": 2188, "gardens": 7612, "freshly": 3492, "prey": 8177, "worm": 4785, "feeder": 3106, "flap": 3065, "tits": 140, "melodic": 683, "plumage": 1013, "ink": 8839, "peanuts": 3593, "sleek": 2094, "1855": 1278, "nash": 1677, "410": 3889, "wayne": 6437, "##combe": 501, "johnston": 1130, "compares": 4863, "143": 3471, "cs": 18335, "est": 34428, "256": 3667, "halifax": 942, "coordinator": 4535, "diversity": 8766, "gujarati": 330, "joker": 1095, "stairs": 4090, "scared": 2056, "##dh": 2478, "##eim": 954, "albums": 5205, "judy": 1724, "##lyn": 1826, "sara": 4436, "vaughn": 557, "sinatra": 972, "sung": 3187, "delicious": 12519, "originals": 1172, "mars": 8800, "dances": 1480, "sing": 8804, "jackson": 14184, "musica": 528, "##light": 7035, "ton": 12095, "concert": 7071, "vegas": 12186, "caesar": 3872, "belt": 11739, "booster": 5601, "hips": 5341, "seated": 2579, "belts": 3047, "routing": 11199, "accommodate": 6434, "shelton": 942, "retailers": 5059, "entertain": 1360, "dated": 6260, "tasting": 3990, "bliss": 1363, "woody": 2971, "stove": 6608, "nationwide": 11575, "combo": 3188, "thank": 16728, "flyer": 1491, "70s": 2962, "##bes": 5700, "laundry": 4486, "wanna": 2303, "##gging": 3878, "vendors": 4742, "discontinued": 2540, "holidays": 9388, "cleared": 3891, "regina": 929, "coup": 7544, "novi": 501, "##cki": 1687, "slick": 1537, "thanksgiving": 3095, "depot": 4912, "assessing": 3414, "objective": 11457, "enterprise": 12104, "analyzed": 3766, "ensures": 5869, "processed": 14590, "timely": 4452, "entities": 7068, "investors": 10152, "proprietary": 3971, "incorporation": 2102, "budgets": 2326, "confuse": 3627, "indication": 7928, "expecting": 3426, "##cies": 7853, "##gnan": 4394, "##carriage": 3450, "##lized": 5012, "drain": 18407, "unused": 2858, "##erus": 12742, "disposal": 4738, "unlikely": 7023, "watery": 5172, "heavier": 6312, "##top": 22968, "swift": 5076, "##amps": 10076, "##mmy": 4423, "shed": 8509, "clone": 2405, "##oning": 2069, "dolly": 1392, "mammal": 3972, "embryo": 8315, "wild": 30801, "endangered": 4301, "##tip": 2295, "genes": 15873, "##nic": 12889, "##wai": 2191, "##ulin": 4581, "honolulu": 2451, "##mac": 2879, "ryu": 458, "calf": 5595, "1998": 14785, "calves": 2677, "##ores": 2786, "breeders": 2285, "wisconsin": 14119, "zoo": 8160, "sioux": 1646, "##rogate": 1229, "##nea": 9024, "##rio": 10407, "resurrected": 367, "subspecies": 3314, "extinct": 3786, "organism": 17860, "specialised": 1267, "births": 4183, "##hid": 2986, "clones": 788, "277": 1918, "##slin": 630, "enthusiastic": 1137, "##nis": 8371, "tumors": 10279, "mushroom": 3131, "abu": 7507, "##bell": 6993, "##tton": 1444, "porto": 1000, "##ari": 17378, "fungi": 12016, "enthusiasm": 1791, "likes": 9114, "kingdoms": 2219, "culinary": 4192, "nutrient": 11077, "##cology": 3019, "zoology": 1260, "botany": 1736, "revered": 1145, "intake": 22361, "##ein": 6579, "grill": 16391, "constituents": 2360, "advise": 5481, "investigated": 2452, "capsule": 10573, "##shi": 8586, "bitterness": 939, "extracts": 2840, "##yen": 3715, "charcoal": 3695, "##zle": 3596, "stems": 9026, "##his": 14536, "##virus": 6662, "##zed": 16848, "##igh": 2339, "vaccines": 5530, "##lva": 3914, "penis": 6363, "vu": 6313, "oro": 3101, "varieties": 16304, "bold": 7270, "recommends": 9842, "lesions": 6633, "clearance": 5356, "herbal": 6768, "reset": 9629, "metric": 11904, "##law": 3321, "242": 2421, "overhead": 6355, "totaled": 1269, "##anies": 1524, "##omp": 7570, "##gate": 8951, "##ocating": 804, "404": 2064, "##bill": 2254, "invest": 7123, "##force": 2633, "100th": 1163, "allocation": 3186, "lawyers": 5297, "improving": 9589, "executed": 4725, "easiest": 12427, "stretches": 4837, "stretching": 6344, "knees": 6088, "touches": 2852, "legs": 30276, "toes": 7588, "legged": 1432, "encourage": 10248, "bent": 5482, "hopes": 4189, "finds": 8695, "workout": 11879, "wasting": 2345, "yoga": 4588, "opener": 2166, "beneficial": 11727, "countless": 3569, "placing": 8862, "comfortable": 17445, "altogether": 3503, "##uld": 3497, "deliberate": 1771, "##nik": 1936, "blah": 374, "posture": 4341, "risky": 2067, "vale": 5347, "helium": 3682, "##eno": 13441, "neon": 4632, "##pton": 1653, "ark": 3624, "nitrogen": 15370, "lithium": 3640, "##ryl": 8407, "##orin": 3144, "##lium": 2250, "##ple": 13846, "##kko": 516, "japan": 23634, "tacoma": 1555, "shi": 9595, "diversified": 1527, "fishermen": 1188, "##hole": 2875, "ambitious": 1928, "marina": 8759, "poke": 2417, "##lative": 2455, "posse": 759, "##sion": 6494, "##balance": 7673, "puget": 816, "##bey": 818, "cruises": 2195, "168": 4519, "##urst": 490, "steamboat": 820, "##ndo": 2112, "juan": 4023, "##osh": 1694, "211": 2659, "##dron": 1078, "mason": 4080, "##alla": 903, "##ury": 1799, "corridor": 1729, "composing": 872, "olympic": 6031, "rico": 6668, "puerto": 7362, "elaine": 790, "tak": 2234, "workshop": 2868, "bain": 1003, "crosses": 3230, "arrive": 12037, "elliott": 1443, "dentist": 10965, "ivory": 1948, "surely": 2688, "1772": 508, "extracted": 5939, "##ota": 6361, "dancer": 3062, "athletic": 7361, "20s": 2071, "portrait": 3410, "rees": 741, "grim": 2209, "faced": 6511, "adventurous": 957, "greenwood": 908, "dent": 7079, "##ures": 7794, "oath": 3235, "inaugurated": 986, "1789": 3216, "deterioration": 2016, "distorted": 1329, "elephant": 3950, "myth": 6847, "wooden": 7682, "plagued": 936, "shining": 2131, "##baum": 689, "curator": 667, "dd": 8922, "scanning": 3206, "swan": 2266, "baltimore": 5738, "jed": 675, "##sf": 4312, "shipped": 4554, "chopper": 788, "##ener": 12442, "boring": 2643, "scans": 3886, "servicemen": 281, "cemeteries": 976, "wars": 10633, "pensions": 1612, "pittsburgh": 5603, "suburb": 3870, "brit": 6150, "magistrates": 446, "chatting": 583, "mount": 18388, "112": 6770, "oversight": 2323, "subcommittee": 554, "punish": 3413, "assembly": 13771, "arrange": 6662, "millionaire": 1465, "contender": 831, "guns": 4622, "##ructured": 618, "reorganization": 770, "testify": 1231, "chairs": 3277, "ethics": 5455, "forums": 5653, "editions": 2318, "diana": 2985, "##ssen": 1696, "researcher": 3395, "programme": 3918, "##erland": 736, "thereafter": 3586, "##dis": 12809, "##cus": 20820, "installing": 11243, "settings": 35986, "boot": 10194, "reflect": 13784, "radios": 1162, "listeners": 1216, "producer": 16564, "roger": 4067, "restricting": 1209, "outlines": 3237, "incurred": 4492, "pronounced": 20136, "davis": 7088, "syllables": 4440, "pixels": 2641, "##100": 5236, "dod": 4456, "coats": 4275, "##vah": 1409, "patron": 3672, "distinguished": 8408, "descended": 2277, "\u00d7": 1753, "defeat": 4646, "testament": 4446, "##wd": 3072, "10th": 7916, "giant": 15961, "enclosure": 3075, "stubborn": 2068, "builder": 4459, "disciplined": 666, "minded": 2045, "girls": 25677, "welsh": 3982, "45th": 722, "subsidy": 1031, "##uis": 4733, "reign": 4614, "cambridgeshire": 210, "spelling": 12214, "taxation": 4025, "132": 4465, "rolls": 5897, "jews": 4326, "##hua": 1518, "belief": 10061, "handed": 4486, "adjusted": 11428, "starbucks": 2675, "unclear": 3931, "trim": 18833, "##cier": 2434, "appealing": 3059, "kick": 7395, "##backs": 3672, "##rand": 2542, "essence": 5269, "desk": 7716, "guests": 12624, "expects": 2628, "doctors": 28877, "##holders": 3043, "##holder": 3828, "reservations": 4321, "dial": 23767, "ari": 8695, "tucson": 2086, "##ope": 4724, "##lete": 1069, "steven": 3931, "##yo": 21610, "chiba": 127, "headquarters": 11891, "mae": 3361, "prefecture": 1022, "tokyo": 4260, "mina": 1616, "nara": 691, "fukuoka": 104, "orange": 28547, "soy": 13214, "package": 25911, "debuted": 3493, "ich": 2435, "explanations": 2808, "noodles": 3137, "dai": 3566, "##hiro": 234, "anime": 3290, "nina": 1233, "easton": 965, "mein": 570, "chow": 1561, "##kis": 2050, "##une": 6720, "hokkaido": 376, "relation": 10921, "##odle": 3246, "liked": 3954, "##uth": 3083, "boxes": 9638, "sally": 1897, "kara": 3277, "wonderful": 12951, "##aw": 14402, "##hunter": 559, "eels": 447, "soup": 11994, "##llie": 1820, "heel": 5968, "##gam": 1731, "chips": 8295, "papers": 8264, "holes": 12172, "sided": 4077, "protector": 2378, "notebook": 3104, "talon": 535, "muted": 510, "barn": 4346, "equipped": 7911, "tails": 3663, "dozen": 5846, "faces": 7942, "feathers": 4250, "owls": 1825, "predatory": 963, "questioning": 1292, "pronouns": 1493, "fling": 449, "rabbits": 4840, "beak": 2759, "##rb": 11442, "weren": 3563, "##hic": 8878, "##rasia": 1354, "sticks": 5752, "preschool": 3585, "glue": 6372, "clever": 2701, "wings": 8555, "scissors": 2125, "##hore": 2092, "usual": 17368, "convey": 7755, "dumb": 3811, "glasses": 7873, "congregations": 272, "crocodile": 1929, "rhino": 3235, "alligator": 2172, "dragons": 2551, "aquatic": 5338, "africa": 34292, "reptiles": 4143, "##lina": 2294, "subfamily": 865, "##oco": 15315, "bas": 7929, "congregation": 896, "confused": 14633, "juveniles": 849, "dominant": 10918, "operator": 8843, "gaines": 1355, "telecommunications": 2871, "crank": 4088, "##plane": 1447, "counted": 4755, "switzerland": 6251, "passenger": 10762, "defines": 10969, "hart": 3765, "##hd": 6048, "arabia": 3649, "saudi": 3487, "dam": 6383, "footage": 5195, "khalid": 185, "##yad": 919, "delhi": 3023, "powerhouse": 1644, "heath": 2861, "rio": 6081, "satisfy": 5067, "airplane": 4380, "wilbur": 722, "curiosity": 1797, "utopia": 771, "##kind": 1541, "wright": 4051, "offs": 2801, "yd": 2018, "chun": 436, "yards": 9901, "##late": 6010, "illustrate": 3450, "intentional": 2236, "newt": 667, "##bian": 2053, "crested": 657, "ponds": 2650, "regard": 7313, "gills": 1455, "jaws": 2460, "limbs": 5044, "reg": 11741, "biodiversity": 1643, "licence": 3125, "##bians": 2379, "captivity": 2940, "reproduce": 5936, "intriguing": 1417, "lenses": 6032, "freshwater": 5634, "pockets": 3223, "streams": 6035, "absolute": 11966, "gi": 26843, "permanently": 7047, "marsh": 3653, "dwell": 1484, "inhabit": 4488, "traced": 3443, "##ddy": 1294, "terrestrial": 3821, "nocturnal": 2192, "volatile": 3420, "stamford": 579, "rochelle": 367, "##nk": 7766, "devastating": 3158, "##house": 8490, "grove": 4299, "edwin": 1319, "165": 6567, "ave": 13261, "##18": 7316, "bath": 14993, "##shing": 5567, "226": 2435, "##ridge": 3946, "174": 2088, "##un": 20579, "##lham": 348, "motorcycles": 2198, "mud": 6555, "##mobile": 2011, "atv": 1793, "deepest": 3578, "township": 9684, "##wk": 1632, "##lin": 14474, "unincorporated": 4084, "fraser": 1041, "geese": 1206, "enjoys": 3356, "deer": 9961, "taxi": 6278, "ducks": 2707, "##etz": 680, "outdoors": 5973, "##mist": 1553, "accepts": 4683, "##hair": 1332, "182": 2011, "simplified": 3443, "specials": 1894, "##tail": 3777, "processors": 2476, "safari": 2674, "meat": 60812, "trout": 3603, "##atal": 3120, "recover": 11654, "intimidating": 1094, "nic": 2959, "parenting": 1910, "ease": 14833, "fears": 3104, "unfamiliar": 1781, "##station": 7103, "prematurely": 1102, "dime": 4235, "##emi": 5509, "dates": 25295, "nurses": 10944, "grasp": 2867, "jerk": 2830, "deliveries": 1323, "cabins": 2769, "scenery": 2391, "ample": 2468, "crossroads": 1271, "##was": 1862, "cherokee": 3281, "mountains": 21916, "residences": 1375, "neighbors": 3858, "baths": 3353, "sorted": 6614, "beds": 7648, "raleigh": 2388, "kentucky": 12690, "##hey": 6121, "yi": 1723, "archibald": 280, "capitals": 1065, "rooted": 2672, "nestled": 2641, "alike": 7064, "neighborhoods": 4582, "978": 1355, "heal": 15346, "bruised": 1095, "nsa": 5373, "suck": 2826, "repeating": 2854, "nat": 6005, "bike": 9373, "healing": 16926, "##tock": 3229, "##bone": 5184, "lying": 8969, "helpful": 25222, "coughing": 6378, "crashes": 2459, "##kill": 3786, "accidents": 5494, "quarter": 22077, "knocked": 1334, "felt": 16253, "##nee": 7619, "crazy": 6465, "rusty": 1250, "##roid": 14097, "##rained": 1504, "##ories": 58061, "nap": 8049, "##rain": 5304, "minimal": 10829, "tape": 15261, "##cta": 7886, "popping": 2622, "principle": 11838, "analyze": 9496, "compression": 9646, "outstretched": 432, "forwards": 1292, "instinctively": 300, "fragment": 1948, "partial": 13955, "##ulsion": 2268, "spike": 3281, "insulin": 14165, "##ods": 3389, "##akes": 4274, "corn": 30357, "crack": 10747, "\u00bf": 9837, "shelf": 8913, "reflects": 7701, "converts": 6100, "reacts": 4446, "tiger": 5812, "circa": 2655, "tobacco": 8790, "##asurable": 3129, "seasonal": 9008, "physiological": 5591, "stimulus": 4217, "coping": 1718, "provoke": 1007, "confronting": 407, "paced": 1633, "advancement": 3744, "##wo": 8124, "##tiv": 5336, "situations": 16004, "##xious": 1087, "hurricane": 6912, "katrina": 1230, "laboratories": 3780, "aftermath": 1766, "campuses": 2150, "teach": 11477, "scholarly": 1611, "grading": 2106, "mysterious": 4172, "academia": 798, "marital": 2534, "##rim": 10793, "affiliation": 2644, "usable": 2904, "##vel": 6127, "avoiding": 5267, "feedback": 9496, "instructor": 5385, "surprising": 5622, "array": 12483, "archaeologists": 954, "comprehension": 1744, "initiative": 5182, "synth": 4685, "##star": 6220, "chile": 5723, "ginger": 6965, "cooked": 28009, "julien": 325, "alternately": 1405, "potatoes": 16225, "baking": 22511, "##laze": 2477, "sliced": 5100, "##sty": 6493, "strips": 6541, "revision": 3778, "hee": 1765, "sheet": 29849, "potato": 10709, "cookies": 6938, "##son": 19197, "peeled": 2072, "##ten": 19426, "##sea": 4740, "tbs": 5359, "##oon": 15021, "aside": 13062, "##ggles": 1128, "sleeve": 3823, "##vious": 1222, "shirt": 7081, "pants": 4531, "sleepy": 1867, "generalized": 3861, "##44": 6217, "separation": 8253, "##ul": 13596, "disrupted": 1347, "forecast": 27024, "lacking": 4275, "filed": 19223, "##word": 5898, "##pm": 18078, "thirteen": 3683, "fifteen": 4371, "withstand": 3662, "climates": 5627, "roofs": 2381, "pest": 11948, "asphalt": 4706, "debris": 7262, "`": 6412, "##gle": 5753, "honest": 5037, "bang": 4403, "slate": 3415, "hurricanes": 2876, "nah": 2218, "hail": 4149, "copper": 16923, "humidity": 14253, "##grad": 3318, "drastically": 2091, "lifespan": 6230, "rust": 6576, "eta": 3015, "##zzo": 1723, "##ole": 11481, "marble": 5166, "terra": 2997, "improves": 5912, "warrant": 20677, "tiles": 5947, "179": 2153, "##slow": 325, "335": 2258, "183": 2310, "##mity": 4786, "occupations": 3572, "181": 1861, "331": 1808, "tracts": 2037, "244": 2042, "canyon": 6965, "139": 3727, "yellowstone": 1876, "441": 1477, "wyoming": 5087, "thailand": 4614, "searched": 3736, "bolivia": 1869, "sudan": 2256, "distances": 7070, "greece": 9765, "entrance": 8971, "junction": 6771, "cultivation": 2300, "1917": 4215, "##ogist": 7359, "##col": 12254, "##rri": 6392, "specimen": 4172, "grasslands": 2458, "##gum": 979, "##tsu": 1798, "almond": 6775, "brazil": 9694, "medicinal": 4995, "mod": 15643, "tumor": 12588, "##og": 47701, "##cans": 1947, "intense": 13012, "patented": 3632, "101": 13908, "##sc": 22122, "taiwan": 2528, "clusters": 3916, "philippines": 6530, "\u00e6": 2248, "ji": 7459, "princess": 6992, "##iensis": 411, "##gul": 7546, "brasil": 656, "mountainous": 2330, "forest": 18616, "##dad": 1246, "sao": 1080, "paulo": 924, "horton": 1116, "botanist": 846, "##fied": 5656, "maternal": 3663, "variable": 22609, "##aring": 1781, "chances": 11622, "##nta": 10366, "routine": 13587, "adequate": 10539, "implant": 11373, "fuse": 4657, "empty": 15150, "##dav": 2303, "##mple": 3387, "briefly": 5137, "mri": 7147, "oval": 5736, "austin": 7453, "vacant": 1798, "deaf": 3077, "embarrassment": 932, "##acious": 1964, "smile": 5247, "missing": 13067, "shower": 11659, "fungus": 8145, "##bial": 5810, "##ept": 6850, "antibiotics": 15042, "##ibility": 3598, "##sms": 10506, "counts": 7168, "colony": 8039, "isolate": 2718, "morphology": 1939, "inhibit": 7405, "labs": 3734, "##ysis": 11007, "stops": 10233, "stripe": 2114, "flags": 6148, "##taff": 1190, "comprising": 4117, "crescent": 2423, "turkmenistan": 407, "flag": 17277, "pointed": 6267, "embassy": 2891, "dissolution": 1746, "victor": 3097, "commonwealth": 5323, "turk": 797, "##name": 12245, "##words": 4215, "studying": 8595, "visa": 14145, "passport": 12161, "speeches": 1543, "iran": 5167, "caspian": 844, "southernmost": 1289, "##istan": 572, "densely": 1935, "bordered": 4430, "uzbekistan": 601, "##rk": 5788, "republics": 695, "kazakhstan": 1122, "constituent": 3518, "ussr": 1342, "malicious": 2138, "##ams": 4353, "##rug": 1129, "##mona": 2376, "pseudo": 5773, "infectious": 10286, "ulster": 754, "##any": 2069, "##esa": 2352, "lowry": 618, "singular": 7907, "vents": 2437, "##ccus": 6284, "simpler": 4244, "arch": 12358, "domains": 3224, "##kar": 13043, "##aea": 3086, "##ency": 5818, "messenger": 4996, "substantial": 8328, "discarded": 1845, "portions": 9585, "mrna": 4065, "##lei": 4180, "##ocytes": 7418, "##\u00a5": 5904, "##ogen": 6673, "trends": 9918, "renal": 9054, "ascent": 944, "##pad": 5212, "php": 3187, "migration": 4791, "copied": 3848, "##ried": 1748, "unauthorized": 2123, "referenced": 2926, "que": 10992, "convert": 33847, "interchange": 7492, "cooperate": 1182, "machines": 13212, "uniform": 11227, "naming": 5157, "samba": 544, "mapping": 3971, "sid": 2682, "sorts": 4768, "whilst": 4796, "aware": 17997, "##eti": 12776, "progressing": 1108, "ultrasound": 8852, "22nd": 2710, "arrival": 9594, "##orth": 560, "conception": 4735, "##anda": 1455, "concludes": 1106, "##nat": 6912, "autism": 3750, "abortion": 2676, "##ths": 2172, "##bir": 1349, "##elles": 5735, "varied": 8140, "##oles": 2027, "trunks": 1315, "swell": 4747, "distinguishing": 2383, "regulate": 10512, "upright": 5069, "structural": 13260, "enveloped": 432, "compartment": 3628, "membranes": 10061, "compositions": 1437, "functionality": 6250, "##ace": 11477, "architecture": 11353, "##layer": 2676, "##alis": 3369, "tens": 5668, "surrounds": 4978, "##hire": 958, "flemish": 676, "mated": 595, "glasgow": 1420, "lana": 1303, "1700": 3522, "hauling": 1028, "horses": 11430, "stocks": 7590, "clyde": 1158, "##sdale": 1870, "commanding": 1403, "zealand": 11216, "##iving": 3056, "1826": 985, "exhibited": 1363, "promotional": 2841, "1830s": 788, "stallion": 824, "1840s": 743, "filly": 214, "##quin": 8088, "##gist": 3615, "##39": 5254, "##horse": 1312, "jenna": 675, "113": 5465, "##14": 9018, "##24": 7807,
[...]
